06080f08fdfc0c07
06080f08fdfc0c07
06080f08fdfc0c07
06080f08fdfc0c07
06080f08fdfc0c07
06080f08fdfc0c07
06080f08fdfc0c07
06080f08fdfc0c07
08000b0206090506
08000b0206090506
08000b0206090506
08000b0206090506
08000b0206090506
08000b0206090506
08000b0206090506
08000b0206090506
050a03090108050a
050a03090108050a
050a03090108050a
050a03090108050a
050a03090108050a
050a03090108050a
050a03090108050a
050a03090108050a
e817ec12fcfddd10
e817ec12fcfddd10
e817ec12fcfddd10
e817ec12fcfddd10
e817ec12fcfddd10
e817ec12fcfddd10
e817ec12fcfddd10
e817ec12fcfddd10
11f8e7f6eb1decee
11f8e7f6eb1decee
11f8e7f6eb1decee
11f8e7f6eb1decee
11f8e7f6eb1decee
11f8e7f6eb1decee
11f8e7f6eb1decee
11f8e7f6eb1decee
e917f3fbf71a06e6
e917f3fbf71a06e6
e917f3fbf71a06e6
e917f3fbf71a06e6
e917f3fbf71a06e6
e917f3fbf71a06e6
e917f3fbf71a06e6
e917f3fbf71a06e6
fe0f0b0b000a0f03
fe0f0b0b000a0f03
fe0f0b0b000a0f03
fe0f0b0b000a0f03
fe0f0b0b000a0f03
fe0f0b0b000a0f03
fe0f0b0b000a0f03
fe0f0b0b000a0f03
1904fa0208f4f60d
1904fa0208f4f60d
1904fa0208f4f60d
1904fa0208f4f60d
1904fa0208f4f60d
1904fa0208f4f60d
1904fa0208f4f60d
1904fa0208f4f60d
0cfefdff04fe03f7
0cfefdff04fe03f7
0cfefdff04fe03f7
0cfefdff04fe03f7
0cfefdff04fe03f7
0cfefdff04fe03f7
0cfefdff04fe03f7
0cfefdff04fe03f7
00fa0c0bf60d0901
00fa0c0bf60d0901
00fa0c0bf60d0901
00fa0c0bf60d0901
00fa0c0bf60d0901
00fa0c0bf60d0901
00fa0c0bf60d0901
00fa0c0bf60d0901
fb0bf9f6080bfefa
fb0bf9f6080bfefa
fb0bf9f6080bfefa
fb0bf9f6080bfefa
fb0bf9f6080bfefa
fb0bf9f6080bfefa
fb0bf9f6080bfefa
fb0bf9f6080bfefa
0d0d0b0911f609fd
0d0d0b0911f609fd
0d0d0b0911f609fd
0d0d0b0911f609fd
0d0d0b0911f609fd
0d0d0b0911f609fd
0d0d0b0911f609fd
0d0d0b0911f609fd
0cf700060c0000fd
0cf700060c0000fd
0cf700060c0000fd
0cf700060c0000fd
0cf700060c0000fd
0cf700060c0000fd
0cf700060c0000fd
0cf700060c0000fd
120cf6fcff0e05f9
120cf6fcff0e05f9
120cf6fcff0e05f9
120cf6fcff0e05f9
120cf6fcff0e05f9
120cf6fcff0e05f9
120cf6fcff0e05f9
120cf6fcff0e05f9
040a020301010408
040a020301010408
040a020301010408
040a020301010408
040a020301010408
040a020301010408
040a020301010408
040a020301010408
04fe000206050604
04fe000206050604
04fe000206050604
04fe000206050604
04fe000206050604
04fe000206050604
04fe000206050604
04fe000206050604
01fcfb0008000507
01fcfb0008000507
01fcfb0008000507
01fcfb0008000507
01fcfb0008000507
01fcfb0008000507
01fcfb0008000507
01fcfb0008000507
020001ff08020200
020001ff08020200
020001ff08020200
020001ff08020200
020001ff08020200
020001ff08020200
020001ff08020200
020001ff08020200
050503020101f902
050503020101f902
050503020101f902
050503020101f902
050503020101f902
050503020101f902
050503020101f902
050503020101f902
0700000505fdfa03
0700000505fdfa03
0700000505fdfa03
0700000505fdfa03
0700000505fdfa03
0700000505fdfa03
0700000505fdfa03
0700000505fdfa03
fc01040305fe0403
fc01040305fe0403
fc01040305fe0403
fc01040305fe0403
fc01040305fe0403
fc01040305fe0403
fc01040305fe0403
fc01040305fe0403
01010004fffb03fd
01010004fffb03fd
01010004fffb03fd
01010004fffb03fd
01010004fffb03fd
01010004fffb03fd
01010004fffb03fd
01010004fffb03fd
0501faf5fff7002b
0501faf5fff7002b
0501faf5fff7002b
0501faf5fff7002b
0501faf5fff7002b
0501faf5fff7002b
0501faf5fff7002b
0501faf5fff7002b
1a2602d5e80259fe
1a2602d5e80259fe
1a2602d5e80259fe
1a2602d5e80259fe
1a2602d5e80259fe
1a2602d5e80259fe
1a2602d5e80259fe
1a2602d5e80259fe
fcf9e5fb2c05e609
fcf9e5fb2c05e609
fcf9e5fb2c05e609
fcf9e5fb2c05e609
fcf9e5fb2c05e609
fcf9e5fb2c05e609
fcf9e5fb2c05e609
fcf9e5fb2c05e609
f929292ef909e9f6
f929292ef909e9f6
f929292ef909e9f6
f929292ef909e9f6
f929292ef909e9f6
f929292ef909e9f6
f929292ef909e9f6
f929292ef909e9f6
ff1814272dee2005
ff1814272dee2005
ff1814272dee2005
ff1814272dee2005
ff1814272dee2005
ff1814272dee2005
ff1814272dee2005
ff1814272dee2005
fb01fe31f7f6060b
fb01fe31f7f6060b
fb01fe31f7f6060b
fb01fe31f7f6060b
fb01fe31f7f6060b
fb01fe31f7f6060b
fb01fe31f7f6060b
fb01fe31f7f6060b
030206012ebefafa
030206012ebefafa
030206012ebefafa
030206012ebefafa
030206012ebefafa
030206012ebefafa
030206012ebefafa
030206012ebefafa
013e02012c0e000f
013e02012c0e000f
013e02012c0e000f
013e02012c0e000f
013e02012c0e000f
013e02012c0e000f
013e02012c0e000f
013e02012c0e000f
0008090c080d02fc
0008090c080d02fc
0008090c080d02fc
0008090c080d02fc
0008090c080d02fc
0008090c080d02fc
0008090c080d02fc
0008090c080d02fc
12000d0007000a08
12000d0007000a08
12000d0007000a08
12000d0007000a08
12000d0007000a08
12000d0007000a08
12000d0007000a08
12000d0007000a08
0904fa0c0902fdfb
0904fa0c0902fdfb
0904fa0c0902fdfb
0904fa0c0902fdfb
0904fa0c0902fdfb
0904fa0c0902fdfb
0904fa0c0902fdfb
0904fa0c0902fdfb
ff0406010c08040b
ff0406010c08040b
ff0406010c08040b
ff0406010c08040b
ff0406010c08040b
ff0406010c08040b
ff0406010c08040b
ff0406010c08040b
0103faff01010a02
0103faff01010a02
0103faff01010a02
0103faff01010a02
0103faff01010a02
0103faff01010a02
0103faff01010a02
0103faff01010a02
030001fefdfef800
030001fefdfef800
030001fefdfef800
030001fefdfef800
030001fefdfef800
030001fefdfef800
030001fefdfef800
030001fefdfef800
0203fc0405fd0200
0203fc0405fd0200
0203fc0405fd0200
0203fc0405fd0200
0203fc0405fd0200
0203fc0405fd0200
0203fc0405fd0200
0203fc0405fd0200
0700030302020704
0700030302020704
0700030302020704
0700030302020704
0700030302020704
0700030302020704
0700030302020704
0700030302020704
04fe0b0603fd08f8
04fe0b0603fd08f8
04fe0b0603fd08f8
04fe0b0603fd08f8
04fe0b0603fd08f8
04fe0b0603fd08f8
04fe0b0603fd08f8
04fe0b0603fd08f8
f9fe090900ff0505
f9fe090900ff0505
f9fe090900ff0505
f9fe090900ff0505
f9fe090900ff0505
f9fe090900ff0505
f9fe090900ff0505
f9fe090900ff0505
fa06040701fa0afa
fa06040701fa0afa
fa06040701fa0afa
fa06040701fa0afa
fa06040701fa0afa
fa06040701fa0afa
fa06040701fa0afa
fa06040701fa0afa
f80108fafc0205f9
f80108fafc0205f9
f80108fafc0205f9
f80108fafc0205f9
f80108fafc0205f9
f80108fafc0205f9
f80108fafc0205f9
f80108fafc0205f9
050200fd01010d02
050200fd01010d02
050200fd01010d02
050200fd01010d02
050200fd01010d02
050200fd01010d02
050200fd01010d02
050200fd01010d02
09fff9fa0201fa06
09fff9fa0201fa06
09fff9fa0201fa06
09fff9fa0201fa06
09fff9fa0201fa06
09fff9fa0201fa06
09fff9fa0201fa06
09fff9fa0201fa06
fb0905ff03ff0706
fb0905ff03ff0706
fb0905ff03ff0706
fb0905ff03ff0706
fb0905ff03ff0706
fb0905ff03ff0706
fb0905ff03ff0706
fb0905ff03ff0706
00f900fdf309f106
00f900fdf309f106
00f900fdf309f106
00f900fdf309f106
00f900fdf309f106
00f900fdf309f106
00f900fdf309f106
00f900fdf309f106
06020aeb0f0afdfb
06020aeb0f0afdfb
06020aeb0f0afdfb
06020aeb0f0afdfb
06020aeb0f0afdfb
06020aeb0f0afdfb
06020aeb0f0afdfb
06020aeb0f0afdfb
0c000510040de603
0c000510040de603
0c000510040de603
0c000510040de603
0c000510040de603
0c000510040de603
0c000510040de603
0c000510040de603
0af4eb00f7051308
0af4eb00f7051308
0af4eb00f7051308
0af4eb00f7051308
0af4eb00f7051308
0af4eb00f7051308
0af4eb00f7051308
0af4eb00f7051308
09f20201fd14fc0b
09f20201fd14fc0b
09f20201fd14fc0b
09f20201fd14fc0b
09f20201fd14fc0b
09f20201fd14fc0b
09f20201fd14fc0b
09f20201fd14fc0b
f50b0dfbe2f7120e
f50b0dfbe2f7120e
f50b0dfbe2f7120e
f50b0dfbe2f7120e
f50b0dfbe2f7120e
f50b0dfbe2f7120e
f50b0dfbe2f7120e
f50b0dfbe2f7120e
0b09070b05e4f8f3
0b09070b05e4f8f3
0b09070b05e4f8f3
0b09070b05e4f8f3
0b09070b05e4f8f3
0b09070b05e4f8f3
0b09070b05e4f8f3
0b09070b05e4f8f3
f808fa0a00070f03
f808fa0a00070f03
f808fa0a00070f03
f808fa0a00070f03
f808fa0a00070f03
f808fa0a00070f03
f808fa0a00070f03
f808fa0a00070f03
0e0810030bfe0ddc
0e0810030bfe0ddc
0e0810030bfe0ddc
0e0810030bfe0ddc
0e0810030bfe0ddc
0e0810030bfe0ddc
0e0810030bfe0ddc
0e0810030bfe0ddc
0105020003020205
0105020003020205
0105020003020205
0105020003020205
0105020003020205
0105020003020205
0105020003020205
0105020003020205
0604ff040307ffff
0604ff040307ffff
0604ff040307ffff
0604ff040307ffff
0604ff040307ffff
0604ff040307ffff
0604ff040307ffff
0604ff040307ffff
0304020103020703
0304020103020703
0304020103020703
0304020103020703
0304020103020703
0304020103020703
0304020103020703
0304020103020703
ff0604ff03fd0007
ff0604ff03fd0007
ff0604ff03fd0007
ff0604ff03fd0007
ff0604ff03fd0007
ff0604ff03fd0007
ff0604ff03fd0007
ff0604ff03fd0007
000501ff00ff0402
000501ff00ff0402
000501ff00ff0402
000501ff00ff0402
000501ff00ff0402
000501ff00ff0402
000501ff00ff0402
000501ff00ff0402
04feff01fdfefd02
04feff01fdfefd02
04feff01fdfefd02
04feff01fdfefd02
04feff01fdfefd02
04feff01fdfefd02
04feff01fdfefd02
04feff01fdfefd02
02020102fffe0002
02020102fffe0002
02020102fffe0002
02020102fffe0002
02020102fffe0002
02020102fffe0002
02020102fffe0002
02020102fffe0002
0101ff0502020401
0101ff0502020401
0101ff0502020401
0101ff0502020401
0101ff0502020401
0101ff0502020401
0101ff0502020401
0101ff0502020401
f6f7fef900fffe05
f6f7fef900fffe05
f6f7fef900fffe05
f6f7fef900fffe05
f6f7fef900fffe05
f6f7fef900fffe05
f6f7fef900fffe05
f6f7fef900fffe05
fdf8fafcfbf60205
fdf8fafcfbf60205
fdf8fafcfbf60205
fdf8fafcfbf60205
fdf8fafcfbf60205
fdf8fafcfbf60205
fdf8fafcfbf60205
fdf8fafcfbf60205
fa06f402fcf9fb03
fa06f402fcf9fb03
fa06f402fcf9fb03
fa06f402fcf9fb03
fa06f402fcf9fb03
fa06f402fcf9fb03
fa06f402fcf9fb03
fa06f402fcf9fb03
01fafe00fdfa060d
01fafe00fdfa060d
01fafe00fdfa060d
01fafe00fdfa060d
01fafe00fdfa060d
01fafe00fdfa060d
01fafe00fdfa060d
01fafe00fdfa060d
0700f8f9fafb05f8
0700f8f9fafb05f8
0700f8f9fafb05f8
0700f8f9fafb05f8
0700f8f9fafb05f8
0700f8f9fafb05f8
0700f8f9fafb05f8
0700f8f9fafb05f8
fbfbfbfefefffafb
fbfbfbfefefffafb
fbfbfbfefefffafb
fbfbfbfefefffafb
fbfbfbfefefffafb
fbfbfbfefefffafb
fbfbfbfefefffafb
fbfbfbfefefffafb
01fbfc0103030504
01fbfc0103030504
01fbfc0103030504
01fbfc0103030504
01fbfc0103030504
01fbfc0103030504
01fbfc0103030504
01fbfc0103030504
fc02050000f70405
fc02050000f70405
fc02050000f70405
fc02050000f70405
fc02050000f70405
fc02050000f70405
fc02050000f70405
fc02050000f70405
1e0a0c08ef06f30b
1e0a0c08ef06f30b
1e0a0c08ef06f30b
1e0a0c08ef06f30b
1e0a0c08ef06f30b
1e0a0c08ef06f30b
1e0a0c08ef06f30b
1e0a0c08ef06f30b
19fcea000c07d500
19fcea000c07d500
19fcea000c07d500
19fcea000c07d500
19fcea000c07d500
19fcea000c07d500
19fcea000c07d500
19fcea000c07d500
f40109fa100ff215
f40109fa100ff215
f40109fa100ff215
f40109fa100ff215
f40109fa100ff215
f40109fa100ff215
f40109fa100ff215
f40109fa100ff215
040411f9faf6fd05
040411f9faf6fd05
040411f9faf6fd05
040411f9faf6fd05
040411f9faf6fd05
040411f9faf6fd05
040411f9faf6fd05
040411f9faf6fd05
1df0ffebf8eff7fa
1df0ffebf8eff7fa
1df0ffebf8eff7fa
1df0ffebf8eff7fa
1df0ffebf8eff7fa
1df0ffebf8eff7fa
1df0ffebf8eff7fa
1df0ffebf8eff7fa
0c1c0e112a22e208
0c1c0e112a22e208
0c1c0e112a22e208
0c1c0e112a22e208
0c1c0e112a22e208
0c1c0e112a22e208
0c1c0e112a22e208
0c1c0e112a22e208
f5ebf6ea13f608f6
f5ebf6ea13f608f6
f5ebf6ea13f608f6
f5ebf6ea13f608f6
f5ebf6ea13f608f6
f5ebf6ea13f608f6
f5ebf6ea13f608f6
f5ebf6ea13f608f6
1bfc180d07150b05
1bfc180d07150b05
1bfc180d07150b05
1bfc180d07150b05
1bfc180d07150b05
1bfc180d07150b05
1bfc180d07150b05
1bfc180d07150b05
ffff0207fffd0701
ffff0207fffd0701
ffff0207fffd0701
ffff0207fffd0701
ffff0207fffd0701
ffff0207fffd0701
ffff0207fffd0701
ffff0207fffd0701
0201000001040201
0201000001040201
0201000001040201
0201000001040201
0201000001040201
0201000001040201
0201000001040201
0201000001040201
010304020000fd03
010304020000fd03
010304020000fd03
010304020000fd03
010304020000fd03
010304020000fd03
010304020000fd03
010304020000fd03
00010002030400ff
00010002030400ff
00010002030400ff
00010002030400ff
00010002030400ff
00010002030400ff
00010002030400ff
00010002030400ff
fe01030101000103
fe01030101000103
fe01030101000103
fe01030101000103
fe01030101000103
fe01030101000103
fe01030101000103
fe01030101000103
0201ff0104000101
0201ff0104000101
0201ff0104000101
0201ff0104000101
0201ff0104000101
0201ff0104000101
0201ff0104000101
0201ff0104000101
040101010302fe00
040101010302fe00
040101010302fe00
040101010302fe00
040101010302fe00
040101010302fe00
040101010302fe00
040101010302fe00
02ff030603ffff01
02ff030603ffff01
02ff030603ffff01
02ff030603ffff01
02ff030603ffff01
02ff030603ffff01
02ff030603ffff01
02ff030603ffff01
fe0409f7fdf8ff08
fe0409f7fdf8ff08
fe0409f7fdf8ff08
fe0409f7fdf8ff08
fe0409f7fdf8ff08
fe0409f7fdf8ff08
fe0409f7fdf8ff08
fe0409f7fdf8ff08
f601fcef07f00bf3
f601fcef07f00bf3
f601fcef07f00bf3
f601fcef07f00bf3
f601fcef07f00bf3
f601fcef07f00bf3
f601fcef07f00bf3
f601fcef07f00bf3
faf9f6f6f3ff08f7
faf9f6f6f3ff08f7
faf9f6f6f3ff08f7
faf9f6f6f3ff08f7
faf9f6f6f3ff08f7
faf9f6f6f3ff08f7
faf9f6f6f3ff08f7
faf9f6f6f3ff08f7
05fffbf302f2fd07
05fffbf302f2fd07
05fffbf302f2fd07
05fffbf302f2fd07
05fffbf302f2fd07
05fffbf302f2fd07
05fffbf302f2fd07
05fffbf302f2fd07
03fffbd8ebfcf9f7
03fffbd8ebfcf9f7
03fffbd8ebfcf9f7
03fffbd8ebfcf9f7
03fffbd8ebfcf9f7
03fffbd8ebfcf9f7
03fffbd8ebfcf9f7
03fffbd8ebfcf9f7
07f8f4eefbf1f8f8
07f8f4eefbf1f8f8
07f8f4eefbf1f8f8
07f8f4eefbf1f8f8
07f8f4eefbf1f8f8
07f8f4eefbf1f8f8
07f8f4eefbf1f8f8
07f8f4eefbf1f8f8
07f80608060705f1
07f80608060705f1
07f80608060705f1
07f80608060705f1
07f80608060705f1
07f80608060705f1
07f80608060705f1
07f80608060705f1
f703f7fef6f1fdf7
f703f7fef6f1fdf7
f703f7fef6f1fdf7
f703f7fef6f1fdf7
f703f7fef6f1fdf7
f703f7fef6f1fdf7
f703f7fef6f1fdf7
f703f7fef6f1fdf7
241714f11708f404
241714f11708f404
241714f11708f404
241714f11708f404
241714f11708f404
241714f11708f404
241714f11708f404
241714f11708f404
fc0111170c08ff08
fc0111170c08ff08
fc0111170c08ff08
fc0111170c08ff08
fc0111170c08ff08
fc0111170c08ff08
fc0111170c08ff08
fc0111170c08ff08
010206fd1506f825
010206fd1506f825
010206fd1506f825
010206fd1506f825
010206fd1506f825
010206fd1506f825
010206fd1506f825
010206fd1506f825
e210040c031015fd
e210040c031015fd
e210040c031015fd
e210040c031015fd
e210040c031015fd
e210040c031015fd
e210040c031015fd
e210040c031015fd
13210809120305f6
13210809120305f6
13210809120305f6
13210809120305f6
13210809120305f6
13210809120305f6
13210809120305f6
13210809120305f6
0b17f80c05060300
0b17f80c05060300
0b17f80c05060300
0b17f80c05060300
0b17f80c05060300
0b17f80c05060300
0b17f80c05060300
0b17f80c05060300
f7f1f6fcf1071804
f7f1f6fcf1071804
f7f1f6fcf1071804
f7f1f6fcf1071804
f7f1f6fcf1071804
f7f1f6fcf1071804
f7f1f6fcf1071804
f7f1f6fcf1071804
01090715fd2813fd
01090715fd2813fd
01090715fd2813fd
01090715fd2813fd
01090715fd2813fd
01090715fd2813fd
01090715fd2813fd
01090715fd2813fd
0000fffe00fffb04
0000fffe00fffb04
0000fffe00fffb04
0000fffe00fffb04
0000fffe00fffb04
0000fffe00fffb04
0000fffe00fffb04
0000fffe00fffb04
ff0100ff03ff02fe
ff0100ff03ff02fe
ff0100ff03ff02fe
ff0100ff03ff02fe
ff0100ff03ff02fe
ff0100ff03ff02fe
ff0100ff03ff02fe
ff0100ff03ff02fe
0301ff0004fdff03
0301ff0004fdff03
0301ff0004fdff03
0301ff0004fdff03
0301ff0004fdff03
0301ff0004fdff03
0301ff0004fdff03
0301ff0004fdff03
ff01ff0000040002
ff01ff0000040002
ff01ff0000040002
ff01ff0000040002
ff01ff0000040002
ff01ff0000040002
ff01ff0000040002
ff01ff0000040002
000000feff07ffff
000000feff07ffff
000000feff07ffff
000000feff07ffff
000000feff07ffff
000000feff07ffff
000000feff07ffff
000000feff07ffff
040300fcfe040001
040300fcfe040001
040300fcfe040001
040300fcfe040001
040300fcfe040001
040300fcfe040001
040300fcfe040001
040300fcfe040001
fefeff0000030201
fefeff0000030201
fefeff0000030201
fefeff0000030201
fefeff0000030201
fefeff0000030201
fefeff0000030201
fefeff0000030201
0302030500ff0002
0302030500ff0002
0302030500ff0002
0302030500ff0002
0302030500ff0002
0302030500ff0002
0302030500ff0002
0302030500ff0002
0dedf51a09f91610
0dedf51a09f91610
0dedf51a09f91610
0dedf51a09f91610
0dedf51a09f91610
0dedf51a09f91610
0dedf51a09f91610
0dedf51a09f91610
0cf7f5eff9f708f6
0cf7f5eff9f708f6
0cf7f5eff9f708f6
0cf7f5eff9f708f6
0cf7f5eff9f708f6
0cf7f5eff9f708f6
0cf7f5eff9f708f6
0cf7f5eff9f708f6
ef0e0c091de20f10
ef0e0c091de20f10
ef0e0c091de20f10
ef0e0c091de20f10
ef0e0c091de20f10
ef0e0c091de20f10
ef0e0c091de20f10
ef0e0c091de20f10
fe09fe13ecf90c14
fe09fe13ecf90c14
fe09fe13ecf90c14
fe09fe13ecf90c14
fe09fe13ecf90c14
fe09fe13ecf90c14
fe09fe13ecf90c14
fe09fe13ecf90c14
ef0d0cfb0dfaf4f6
ef0d0cfb0dfaf4f6
ef0d0cfb0dfaf4f6
ef0d0cfb0dfaf4f6
ef0d0cfb0dfaf4f6
ef0d0cfb0dfaf4f6
ef0d0cfb0dfaf4f6
ef0d0cfb0dfaf4f6
f1f7f8fcf8f6f3dd
f1f7f8fcf8f6f3dd
f1f7f8fcf8f6f3dd
f1f7f8fcf8f6f3dd
f1f7f8fcf8f6f3dd
f1f7f8fcf8f6f3dd
f1f7f8fcf8f6f3dd
f1f7f8fcf8f6f3dd
100c1814f30d190b
100c1814f30d190b
100c1814f30d190b
100c1814f30d190b
100c1814f30d190b
100c1814f30d190b
100c1814f30d190b
100c1814f30d190b
11f4f90d01f8ff18
11f4f90d01f8ff18
11f4f90d01f8ff18
11f4f90d01f8ff18
11f4f90d01f8ff18
11f4f90d01f8ff18
11f4f90d01f8ff18
11f4f90d01f8ff18
0ff634f5f814f816
0ff634f5f814f816
0ff634f5f814f816
0ff634f5f814f816
0ff634f5f814f816
0ff634f5f814f816
0ff634f5f814f816
0ff634f5f814f816
f7f7ff0712f8f8e8
f7f7ff0712f8f8e8
f7f7ff0712f8f8e8
f7f7ff0712f8f8e8
f7f7ff0712f8f8e8
f7f7ff0712f8f8e8
f7f7ff0712f8f8e8
f7f7ff0712f8f8e8
f8191722f6f30ef3
f8191722f6f30ef3
f8191722f6f30ef3
f8191722f6f30ef3
f8191722f6f30ef3
f8191722f6f30ef3
f8191722f6f30ef3
f8191722f6f30ef3
f00c1d03fbf60b1c
f00c1d03fbf60b1c
f00c1d03fbf60b1c
f00c1d03fbf60b1c
f00c1d03fbf60b1c
f00c1d03fbf60b1c
f00c1d03fbf60b1c
f00c1d03fbf60b1c
0af9eb15f5f80a17
0af9eb15f5f80a17
0af9eb15f5f80a17
0af9eb15f5f80a17
0af9eb15f5f80a17
0af9eb15f5f80a17
0af9eb15f5f80a17
0af9eb15f5f80a17
f7f70f0702edf51e
f7f70f0702edf51e
f7f70f0702edf51e
f7f70f0702edf51e
f7f70f0702edf51e
f7f70f0702edf51e
f7f70f0702edf51e
f7f70f0702edf51e
0bf50af60f1903f7
0bf50af60f1903f7
0bf50af60f1903f7
0bf50af60f1903f7
0bf50af60f1903f7
0bf50af60f1903f7
0bf50af60f1903f7
0bf50af60f1903f7
0cf311e1fc100df4
0cf311e1fc100df4
0cf311e1fc100df4
0cf311e1fc100df4
0cf311e1fc100df4
0cf311e1fc100df4
0cf311e1fc100df4
0cf311e1fc100df4
f60df8f606fb080b
f60df8f606fb080b
f60df8f606fb080b
f60df8f606fb080b
f60df8f606fb080b
f60df8f606fb080b
f60df8f606fb080b
f60df8f606fb080b
0d0e09f80b0f090a
0d0e09f80b0f090a
0d0e09f80b0f090a
0d0e09f80b0f090a
0d0e09f80b0f090a
0d0e09f80b0f090a
0d0e09f80b0f090a
0d0e09f80b0f090a
0d0bf30d100bf7f7
0d0bf30d100bf7f7
0d0bf30d100bf7f7
0d0bf30d100bf7f7
0d0bf30d100bf7f7
0d0bf30d100bf7f7
0d0bf30d100bf7f7
0d0bf30d100bf7f7
0cf90ef70cfa0cf9
0cf90ef70cfa0cf9
0cf90ef70cfa0cf9
0cf90ef70cfa0cf9
0cf90ef70cfa0cf9
0cf90ef70cfa0cf9
0cf90ef70cfa0cf9
0cf90ef70cfa0cf9
09020d070d0ffc06
09020d070d0ffc06
09020d070d0ffc06
09020d070d0ffc06
09020d070d0ffc06
09020d070d0ffc06
09020d070d0ffc06
09020d070d0ffc06
f609fff9f8f9fc09
f609fff9f8f9fc09
f609fff9f8f9fc09
f609fff9f8f9fc09
f609fff9f8f9fc09
f609fff9f8f9fc09
f609fff9f8f9fc09
f609fff9f8f9fc09
fa0bfd0a120bfaf6
fa0bfd0a120bfaf6
fa0bfd0a120bfaf6
fa0bfd0a120bfaf6
fa0bfd0a120bfaf6
fa0bfd0a120bfaf6
fa0bfd0a120bfaf6
fa0bfd0a120bfaf6
f6f8f9f80b070dfa
f6f8f9f80b070dfa
f6f8f9f80b070dfa
f6f8f9f80b070dfa
f6f8f9f80b070dfa
f6f8f9f80b070dfa
f6f8f9f80b070dfa
f6f8f9f80b070dfa
08f60c0d0ff4fa0a
08f60c0d0ff4fa0a
08f60c0d0ff4fa0a
08f60c0d0ff4fa0a
08f60c0d0ff4fa0a
08f60c0d0ff4fa0a
08f60c0d0ff4fa0a
08f60c0d0ff4fa0a
0a0c0b0cfa0af60c
0a0c0b0cfa0af60c
0a0c0b0cfa0af60c
0a0c0b0cfa0af60c
0a0c0b0cfa0af60c
0a0c0b0cfa0af60c
0a0c0b0cfa0af60c
0a0c0b0cfa0af60c
fa0c0d080bf7f90e
fa0c0d080bf7f90e
fa0c0d080bf7f90e
fa0c0d080bf7f90e
fa0c0d080bf7f90e
fa0c0d080bf7f90e
fa0c0d080bf7f90e
fa0c0d080bf7f90e
04f70cf50a0b0cf7
04f70cf50a0b0cf7
04f70cf50a0b0cf7
04f70cf50a0b0cf7
04f70cf50a0b0cf7
04f70cf50a0b0cf7
04f70cf50a0b0cf7
04f70cf50a0b0cf7
f9f808f8fb0afcf9
f9f808f8fb0afcf9
f9f808f8fb0afcf9
f9f808f8fb0afcf9
f9f808f8fb0afcf9
f9f808f8fb0afcf9
f9f808f8fb0afcf9
f9f808f8fb0afcf9
0af8f6f60a010c0a
0af8f6f60a010c0a
0af8f6f60a010c0a
0af8f6f60a010c0a
0af8f6f60a010c0a
0af8f6f60a010c0a
0af8f6f60a010c0a
0af8f6f60a010c0a
f40d0c0dfff8f80a
f40d0c0dfff8f80a
f40d0c0dfff8f80a
f40d0c0dfff8f80a
f40d0c0dfff8f80a
f40d0c0dfff8f80a
f40d0c0dfff8f80a
f40d0c0dfff8f80a
090305090cf40bf5
090305090cf40bf5
090305090cf40bf5
090305090cf40bf5
090305090cf40bf5
090305090cf40bf5
090305090cf40bf5
090305090cf40bf5
0202000404020402
0202000404020402
0202000404020402
0202000404020402
0202000404020402
0202000404020402
0202000404020402
0202000404020402
0202ff0105020301
0202ff0105020301
0202ff0105020301
0202ff0105020301
0202ff0105020301
0202ff0105020301
0202ff0105020301
0202ff0105020301
fe010000ff01ff00
fe010000ff01ff00
fe010000ff01ff00
fe010000ff01ff00
fe010000ff01ff00
fe010000ff01ff00
fe010000ff01ff00
fe010000ff01ff00
0102ff01fefeff00
0102ff01fefeff00
0102ff01fefeff00
0102ff01fefeff00
0102ff01fefeff00
0102ff01fefeff00
0102ff01fefeff00
0102ff01fefeff00
000003000200ff01
000003000200ff01
000003000200ff01
000003000200ff01
000003000200ff01
000003000200ff01
000003000200ff01
000003000200ff01
01ff04040000fefd
01ff04040000fefd
01ff04040000fefd
01ff04040000fefd
01ff04040000fefd
01ff04040000fefd
01ff04040000fefd
01ff04040000fefd
0102ff000101fe02
0102ff000101fe02
0102ff000101fe02
0102ff000101fe02
0102ff000101fe02
0102ff000101fe02
0102ff000101fe02
0102ff000101fe02
fdfcfeff03010200
fdfcfeff03010200
fdfcfeff03010200
fdfcfeff03010200
fdfcfeff03010200
fdfcfeff03010200
fdfcfeff03010200
fdfcfeff03010200
fe0103fdfd010101
fe0103fdfd010101
fe0103fdfd010101
fe0103fdfd010101
fe0103fdfd010101
fe0103fdfd010101
fe0103fdfd010101
fe0103fdfd010101
02ffff00030102fe
02ffff00030102fe
02ffff00030102fe
02ffff00030102fe
02ffff00030102fe
02ffff00030102fe
02ffff00030102fe
02ffff00030102fe
010200010102fefe
010200010102fefe
010200010102fefe
010200010102fefe
010200010102fefe
010200010102fefe
010200010102fefe
010200010102fefe
ff00010300010201
ff00010300010201
ff00010300010201
ff00010300010201
ff00010300010201
ff00010300010201
ff00010300010201
ff00010300010201
0101ff0000030001
0101ff0000030001
0101ff0000030001
0101ff0000030001
0101ff0000030001
0101ff0000030001
0101ff0000030001
0101ff0000030001
fffefffe030000ff
fffefffe030000ff
fffefffe030000ff
fffefffe030000ff
fffefffe030000ff
fffefffe030000ff
fffefffe030000ff
fffefffe030000ff
fd01fe0300ff01ff
fd01fe0300ff01ff
fd01fe0300ff01ff
fd01fe0300ff01ff
fd01fe0300ff01ff
fd01fe0300ff01ff
fd01fe0300ff01ff
fd01fe0300ff01ff
ffff00ff01000100
ffff00ff01000100
ffff00ff01000100
ffff00ff01000100
ffff00ff01000100
ffff00ff01000100
ffff00ff01000100
ffff00ff01000100
0901020cf1f7f4f3
0901020cf1f7f4f3
0901020cf1f7f4f3
0901020cf1f7f4f3
0901020cf1f7f4f3
0901020cf1f7f4f3
0901020cf1f7f4f3
0901020cf1f7f4f3
ff07f5fff806fff7
ff07f5fff806fff7
ff07f5fff806fff7
ff07f5fff806fff7
ff07f5fff806fff7
ff07f5fff806fff7
ff07f5fff806fff7
ff07f5fff806fff7
faf8140602f603ff
faf8140602f603ff
faf8140602f603ff
faf8140602f603ff
faf8140602f603ff
faf8140602f603ff
faf8140602f603ff
faf8140602f603ff
01f60802fbfb06fd
01f60802fbfb06fd
01f60802fbfb06fd
01f60802fbfb06fd
01f60802fbfb06fd
01f60802fbfb06fd
01f60802fbfb06fd
01f60802fbfb06fd
06fd01f60408f3f9
06fd01f60408f3f9
06fd01f60408f3f9
06fd01f60408f3f9
06fd01f60408f3f9
06fd01f60408f3f9
06fd01f60408f3f9
06fd01f60408f3f9
09f8faf303fefbfa
09f8faf303fefbfa
09f8faf303fefbfa
09f8faf303fefbfa
09f8faf303fefbfa
09f8faf303fefbfa
09f8faf303fefbfa
09f8faf303fefbfa
f502f7f10ffff100
f502f7f10ffff100
f502f7f10ffff100
f502f7f10ffff100
f502f7f10ffff100
f502f7f10ffff100
f502f7f10ffff100
f502f7f10ffff100
02090602fbf603f4
02090602fbf603f4
02090602fbf603f4
02090602fbf603f4
02090602fbf603f4
02090602fbf603f4
02090602fbf603f4
02090602fbf603f4
0a0706030906fafc
0a0706030906fafc
0a0706030906fafc
0a0706030906fafc
0a0706030906fafc
0a0706030906fafc
0a0706030906fafc
0a0706030906fafc
f702020301f60f01
f702020301f60f01
f702020301f60f01
f702020301f60f01
f702020301f60f01
f702020301f60f01
f702020301f60f01
f702020301f60f01
0a00fe06fbfa060a
0a00fe06fbfa060a
0a00fe06fbfa060a
0a00fe06fbfa060a
0a00fe06fbfa060a
0a00fe06fbfa060a
0a00fe06fbfa060a
0a00fe06fbfa060a
0600000200030409
0600000200030409
0600000200030409
0600000200030409
0600000200030409
0600000200030409
0600000200030409
0600000200030409
00fcf2fcf0f7fbf8
00fcf2fcf0f7fbf8
00fcf2fcf0f7fbf8
00fcf2fcf0f7fbf8
00fcf2fcf0f7fbf8
00fcf2fcf0f7fbf8
00fcf2fcf0f7fbf8
00fcf2fcf0f7fbf8
fd08070205f705f4
fd08070205f705f4
fd08070205f705f4
fd08070205f705f4
fd08070205f705f4
fd08070205f705f4
fd08070205f705f4
fd08070205f705f4
090c0af9fe02f908
090c0af9fe02f908
090c0af9fe02f908
090c0af9fe02f908
090c0af9fe02f908
090c0af9fe02f908
090c0af9fe02f908
090c0af9fe02f908
f1fbfa020008f20d
f1fbfa020008f20d
f1fbfa020008f20d
f1fbfa020008f20d
f1fbfa020008f20d
f1fbfa020008f20d
f1fbfa020008f20d
f1fbfa020008f20d
0101010302030201
0101010302030201
0101010302030201
0101010302030201
0101010302030201
0101010302030201
0101010302030201
0101010302030201
fd02ff000300fe01
fd02ff000300fe01
fd02ff000300fe01
fd02ff000300fe01
fd02ff000300fe01
fd02ff000300fe01
fd02ff000300fe01
fd02ff000300fe01
ffff010000030201
ffff010000030201
ffff010000030201
ffff010000030201
ffff010000030201
ffff010000030201
ffff010000030201
ffff010000030201
ff0000fe02fffe02
ff0000fe02fffe02
ff0000fe02fffe02
ff0000fe02fffe02
ff0000fe02fffe02
ff0000fe02fffe02
ff0000fe02fffe02
ff0000fe02fffe02
fefffd0301feff00
fefffd0301feff00
fefffd0301feff00
fefffd0301feff00
fefffd0301feff00
fefffd0301feff00
fefffd0301feff00
fefffd0301feff00
000001fbff00fffd
000001fbff00fffd
000001fbff00fffd
000001fbff00fffd
000001fbff00fffd
000001fbff00fffd
000001fbff00fffd
000001fbff00fffd
01fd01000100fefe
01fd01000100fefe
01fd01000100fefe
01fd01000100fefe
01fd01000100fefe
01fd01000100fefe
01fd01000100fefe
01fd01000100fefe
0000feffff01fffe
0000feffff01fffe
0000feffff01fffe
0000feffff01fffe
0000feffff01fffe
0000feffff01fffe
0000feffff01fffe
0000feffff01fffe
00020204feffff03
00020204feffff03
00020204feffff03
00020204feffff03
00020204feffff03
00020204feffff03
00020204feffff03
00020204feffff03
feff00ff04fa0300
feff00ff04fa0300
feff00ff04fa0300
feff00ff04fa0300
feff00ff04fa0300
feff00ff04fa0300
feff00ff04fa0300
feff00ff04fa0300
fffc0005fd000202
fffc0005fd000202
fffc0005fd000202
fffc0005fd000202
fffc0005fd000202
fffc0005fd000202
fffc0005fd000202
fffc0005fd000202
fbff000101010102
fbff000101010102
fbff000101010102
fbff000101010102
fbff000101010102
fbff000101010102
fbff000101010102
fbff000101010102
02fdfe01fdff03ff
02fdfe01fdff03ff
02fdfe01fdff03ff
02fdfe01fdff03ff
02fdfe01fdff03ff
02fdfe01fdff03ff
02fdfe01fdff03ff
02fdfe01fdff03ff
010001fffdff0101
010001fffdff0101
010001fffdff0101
010001fffdff0101
010001fffdff0101
010001fffdff0101
010001fffdff0101
010001fffdff0101
01fefd00ff02ff00
01fefd00ff02ff00
01fefd00ff02ff00
01fefd00ff02ff00
01fefd00ff02ff00
01fefd00ff02ff00
01fefd00ff02ff00
01fefd00ff02ff00
fefc030300fffe00
fefc030300fffe00
fefc030300fffe00
fefc030300fffe00
fefc030300fffe00
fefc030300fffe00
fefc030300fffe00
fefc030300fffe00
fe000907030100fb
fe000907030100fb
fe000907030100fb
fe000907030100fb
fe000907030100fb
fe000907030100fb
fe000907030100fb
fe000907030100fb
fd0800f8fcfdfbfa
fd0800f8fcfdfbfa
fd0800f8fcfdfbfa
fd0800f8fcfdfbfa
fd0800f8fcfdfbfa
fd0800f8fcfdfbfa
fd0800f8fcfdfbfa
fd0800f8fcfdfbfa
f8050808ff000c04
f8050808ff000c04
f8050808ff000c04
f8050808ff000c04
f8050808ff000c04
f8050808ff000c04
f8050808ff000c04
f8050808ff000c04
0b03050808f9ff00
0b03050808f9ff00
0b03050808f9ff00
0b03050808f9ff00
0b03050808f9ff00
0b03050808f9ff00
0b03050808f9ff00
0b03050808f9ff00
060b04f90b0106f7
060b04f90b0106f7
060b04f90b0106f7
060b04f90b0106f7
060b04f90b0106f7
060b04f90b0106f7
060b04f90b0106f7
060b04f90b0106f7
0afcfc0401ff07fd
0afcfc0401ff07fd
0afcfc0401ff07fd
0afcfc0401ff07fd
0afcfc0401ff07fd
0afcfc0401ff07fd
0afcfc0401ff07fd
0afcfc0401ff07fd
fd0b06fa000cfcfb
fd0b06fa000cfcfb
fd0b06fa000cfcfb
fd0b06fa000cfcfb
fd0b06fa000cfcfb
fd0b06fa000cfcfb
fd0b06fa000cfcfb
fd0b06fa000cfcfb
070505f90af7fd06
070505f90af7fd06
070505f90af7fd06
070505f90af7fd06
070505f90af7fd06
070505f90af7fd06
070505f90af7fd06
070505f90af7fd06
f9fdfc01fdfc02fd
f9fdfc01fdfc02fd
f9fdfc01fdfc02fd
f9fdfc01fdfc02fd
f9fdfc01fdfc02fd
f9fdfc01fdfc02fd
f9fdfc01fdfc02fd
f9fdfc01fdfc02fd
050508fa00fd0101
050508fa00fd0101
050508fa00fd0101
050508fa00fd0101
050508fa00fd0101
050508fa00fd0101
050508fa00fd0101
050508fa00fd0101
0a0605fa01fd0500
0a0605fa01fd0500
0a0605fa01fd0500
0a0605fa01fd0500
0a0605fa01fd0500
0a0605fa01fd0500
0a0605fa01fd0500
0a0605fa01fd0500
fa07060b050d0602
fa07060b050d0602
fa07060b050d0602
fa07060b050d0602
fa07060b050d0602
fa07060b050d0602
fa07060b050d0602
fa07060b050d0602
080806f9f900f900
080806f9f900f900
080806f9f900f900
080806f9f900f900
080806f9f900f900
080806f9f900f900
080806f9f900f900
080806f9f900f900
0bfcf706fbf803fb
0bfcf706fbf803fb
0bfcf706fbf803fb
0bfcf706fbf803fb
0bfcf706fbf803fb
0bfcf706fbf803fb
0bfcf706fbf803fb
0bfcf706fbf803fb
fd02050802070603
fd02050802070603
fd02050802070603
fd02050802070603
fd02050802070603
fd02050802070603
fd02050802070603
fd02050802070603
01ff00ff0202fe09
01ff00ff0202fe09
01ff00ff0202fe09
01ff00ff0202fe09
01ff00ff0202fe09
01ff00ff0202fe09
01ff00ff0202fe09
01ff00ff0202fe09
040902f804010302
040902f804010302
040902f804010302
040902f804010302
040902f804010302
040902f804010302
040902f804010302
040902f804010302
fefc020afa020200
fefc020afa020200
fefc020afa020200
fefc020afa020200
fefc020afa020200
fefc020afa020200
fefc020afa020200
fefc020afa020200
fdfefe000eff050e
fdfefe000eff050e
fdfefe000eff050e
fdfefe000eff050e
fdfefe000eff050e
fdfefe000eff050e
fdfefe000eff050e
fdfefe000eff050e
f9fcfcfdfaff01fc
f9fcfcfdfaff01fc
f9fcfcfdfaff01fc
f9fcfcfdfaff01fc
f9fcfcfdfaff01fc
f9fcfcfdfaff01fc
f9fcfcfdfaff01fc
f9fcfcfdfaff01fc
01fc050700010101
01fc050700010101
01fc050700010101
01fc050700010101
01fc050700010101
01fc050700010101
01fc050700010101
01fc050700010101
15fcfe070003fb09
15fcfe070003fb09
15fcfe070003fb09
15fcfe070003fb09
15fcfe070003fb09
15fcfe070003fb09
15fcfe070003fb09
15fcfe070003fb09
fbff0401010af005
fbff0401010af005
fbff0401010af005
fbff0401010af005
fbff0401010af005
fbff0401010af005
fbff0401010af005
fbff0401010af005
0b04fa0102fdf7fd
0b04fa0102fdf7fd
0b04fa0102fdf7fd
0b04fa0102fdf7fd
0b04fa0102fdf7fd
0b04fa0102fdf7fd
0b04fa0102fdf7fd
0b04fa0102fdf7fd
05010e0105fbfffc
05010e0105fbfffc
05010e0105fbfffc
05010e0105fbfffc
05010e0105fbfffc
05010e0105fbfffc
05010e0105fbfffc
05010e0105fbfffc
0007fafe04fbfd00
0007fafe04fbfd00
0007fafe04fbfd00
0007fafe04fbfd00
0007fafe04fbfd00
0007fafe04fbfd00
0007fafe04fbfd00
0007fafe04fbfd00
0102010d04050307
0102010d04050307
0102010d04050307
0102010d04050307
0102010d04050307
0102010d04050307
0102010d04050307
0102010d04050307
fd08fe05000304ff
fd08fe05000304ff
fd08fe05000304ff
fd08fe05000304ff
fd08fe05000304ff
fd08fe05000304ff
fd08fe05000304ff
fd08fe05000304ff
020100f90ffa0e02
020100f90ffa0e02
020100f90ffa0e02
020100f90ffa0e02
020100f90ffa0e02
020100f90ffa0e02
020100f90ffa0e02
020100f90ffa0e02
01fa05fcfc040302
01fa05fcfc040302
01fa05fcfc040302
01fa05fcfc040302
01fa05fcfc040302
01fa05fcfc040302
01fa05fcfc040302
01fa05fcfc040302
05f9030904fa0205
05f9030904fa0205
05f9030904fa0205
05f9030904fa0205
05f9030904fa0205
05f9030904fa0205
05f9030904fa0205
05f9030904fa0205
0100fafffc000cf8
0100fafffc000cf8
0100fafffc000cf8
0100fafffc000cf8
0100fafffc000cf8
0100fafffc000cf8
0100fafffc000cf8
0100fafffc000cf8
00fe000002020201
00fe000002020201
00fe000002020201
00fe000002020201
00fe000002020201
00fe000002020201
00fe000002020201
00fe000002020201
feffff000000ff00
feffff000000ff00
feffff000000ff00
feffff000000ff00
feffff000000ff00
feffff000000ff00
feffff000000ff00
feffff000000ff00
ff0000fffd010300
ff0000fffd010300
ff0000fffd010300
ff0000fffd010300
ff0000fffd010300
ff0000fffd010300
ff0000fffd010300
ff0000fffd010300
00020002fefefeff
00020002fefefeff
00020002fefefeff
00020002fefefeff
00020002fefefeff
00020002fefefeff
00020002fefefeff
00020002fefefeff
00fe00fdfcfe00fe
00fe00fdfcfe00fe
00fe00fdfcfe00fe
00fe00fdfcfe00fe
00fe00fdfcfe00fe
00fe00fdfcfe00fe
00fe00fdfcfe00fe
00fe00fdfcfe00fe
0002ff0000ff0202
0002ff0000ff0202
0002ff0000ff0202
0002ff0000ff0202
0002ff0000ff0202
0002ff0000ff0202
0002ff0000ff0202
0002ff0000ff0202
00010201ff000001
00010201ff000001
00010201ff000001
00010201ff000001
00010201ff000001
00010201ff000001
00010201ff000001
00010201ff000001
0302000200ff0001
0302000200ff0001
0302000200ff0001
0302000200ff0001
0302000200ff0001
0302000200ff0001
0302000200ff0001
0302000200ff0001
0300fe000000feff
0300fe000000feff
0300fe000000feff
0300fe000000feff
0300fe000000feff
0300fe000000feff
0300fe000000feff
0300fe000000feff
fe03fefd00fd0101
fe03fefd00fd0101
fe03fefd00fd0101
fe03fefd00fd0101
fe03fefd00fd0101
fe03fefd00fd0101
fe03fefd00fd0101
fe03fefd00fd0101
0002ff0301fb0102
0002ff0301fb0102
0002ff0301fb0102
0002ff0301fb0102
0002ff0301fb0102
0002ff0301fb0102
0002ff0301fb0102
0002ff0301fb0102
010201fe020001fe
010201fe020001fe
010201fe020001fe
010201fe020001fe
010201fe020001fe
010201fe020001fe
010201fe020001fe
010201fe020001fe
ff00fd01fffffd01
ff00fd01fffffd01
ff00fd01fffffd01
ff00fd01fffffd01
ff00fd01fffffd01
ff00fd01fffffd01
ff00fd01fffffd01
ff00fd01fffffd01
00010002fffd0000
00010002fffd0000
00010002fffd0000
00010002fffd0000
00010002fffd0000
00010002fffd0000
00010002fffd0000
00010002fffd0000
00000000ff01ff00
00000000ff01ff00
00000000ff01ff00
00000000ff01ff00
00000000ff01ff00
00000000ff01ff00
00000000ff01ff00
00000000ff01ff00
0000ff00ff0000ff
0000ff00ff0000ff
0000ff00ff0000ff
0000ff00ff0000ff
0000ff00ff0000ff
0000ff00ff0000ff
0000ff00ff0000ff
0000ff00ff0000ff
02fafdfefb04fefa
02fafdfefb04fefa
02fafdfefb04fefa
02fafdfefb04fefa
02fafdfefb04fefa
02fafdfefb04fefa
02fafdfefb04fefa
02fafdfefb04fefa
01fd03fb030605fa
01fd03fb030605fa
01fd03fb030605fa
01fd03fb030605fa
01fd03fb030605fa
01fd03fb030605fa
01fd03fb030605fa
01fd03fb030605fa
0700fbfc0205fcfe
0700fbfc0205fcfe
0700fbfc0205fcfe
0700fbfc0205fcfe
0700fbfc0205fcfe
0700fbfc0205fcfe
0700fbfc0205fcfe
0700fbfc0205fcfe
fa06fe05fcfafa07
fa06fe05fcfafa07
fa06fe05fcfafa07
fa06fe05fcfafa07
fa06fe05fcfafa07
fa06fe05fcfafa07
fa06fe05fcfafa07
fa06fe05fcfafa07
080303fe0206fff8
080303fe0206fff8
080303fe0206fff8
080303fe0206fff8
080303fe0206fff8
080303fe0206fff8
080303fe0206fff8
080303fe0206fff8
fdfe070503fd02fd
fdfe070503fd02fd
fdfe070503fd02fd
fdfe070503fd02fd
fdfe070503fd02fd
fdfe070503fd02fd
fdfe070503fd02fd
fdfe070503fd02fd
fa05ff0706fbfc02
fa05ff0706fbfc02
fa05ff0706fbfc02
fa05ff0706fbfc02
fa05ff0706fbfc02
fa05ff0706fbfc02
fa05ff0706fbfc02
fa05ff0706fbfc02
fefcf9fefaf904fc
fefcf9fefaf904fc
fefcf9fefaf904fc
fefcf9fefaf904fc
fefcf9fefaf904fc
fefcf9fefaf904fc
fefcf9fefaf904fc
fefcf9fefaf904fc
07f8fdff0203fcfb
07f8fdff0203fcfb
07f8fdff0203fcfb
07f8fdff0203fcfb
07f8fdff0203fcfb
07f8fdff0203fcfb
07f8fdff0203fcfb
07f8fdff0203fcfb
fe02fb05ffff0807
fe02fb05ffff0807
fe02fb05ffff0807
fe02fb05ffff0807
fe02fb05ffff0807
fe02fb05ffff0807
fe02fb05ffff0807
fe02fb05ffff0807
0503fb0107fb0605
0503fb0107fb0605
0503fb0107fb0605
0503fb0107fb0605
0503fb0107fb0605
0503fb0107fb0605
0503fb0107fb0605
0503fb0107fb0605
fffaf9fafc010405
fffaf9fafc010405
fffaf9fafc010405
fffaf9fafc010405
fffaf9fafc010405
fffaf9fafc010405
fffaf9fafc010405
fffaf9fafc010405
0001fbfc07f905fd
0001fbfc07f905fd
0001fbfc07f905fd
0001fbfc07f905fd
0001fbfc07f905fd
0001fbfc07f905fd
0001fbfc07f905fd
0001fbfc07f905fd
010505050101f803
010505050101f803
010505050101f803
010505050101f803
010505050101f803
010505050101f803
010505050101f803
010505050101f803
0402fdfafafa0603
0402fdfafafa0603
0402fdfafafa0603
0402fdfafafa0603
0402fdfafafa0603
0402fdfafafa0603
0402fdfafafa0603
0402fdfafafa0603
01fa0406fefcfbfa
01fa0406fefcfbfa
01fa0406fefcfbfa
01fa0406fefcfbfa
01fa0406fefcfbfa
01fa0406fefcfbfa
01fa0406fefcfbfa
01fa0406fefcfbfa
f2fc0cf3fb011005
f2fc0cf3fb011005
f2fc0cf3fb011005
f2fc0cf3fb011005
f2fc0cf3fb011005
f2fc0cf3fb011005
f2fc0cf3fb011005
f2fc0cf3fb011005
0c0f01fffbf31313
0c0f01fffbf31313
0c0f01fffbf31313
0c0f01fffbf31313
0c0f01fffbf31313
0c0f01fffbf31313
0c0f01fffbf31313
0c0f01fffbf31313
ea02f8fcf30afb02
ea02f8fcf30afb02
ea02f8fcf30afb02
ea02f8fcf30afb02
ea02f8fcf30afb02
ea02f8fcf30afb02
ea02f8fcf30afb02
ea02f8fcf30afb02
0df7f20107f7fa02
0df7f20107f7fa02
0df7f20107f7fa02
0df7f20107f7fa02
0df7f20107f7fa02
0df7f20107f7fa02
0df7f20107f7fa02
0df7f20107f7fa02
060a0df01d00f706
060a0df01d00f706
060a0df01d00f706
060a0df01d00f706
060a0df01d00f706
060a0df01d00f706
060a0df01d00f706
060a0df01d00f706
090f120dfd0b02f9
090f120dfd0b02f9
090f120dfd0b02f9
090f120dfd0b02f9
090f120dfd0b02f9
090f120dfd0b02f9
090f120dfd0b02f9
090f120dfd0b02f9
0b00f8f40be7e9fd
0b00f8f40be7e9fd
0b00f8f40be7e9fd
0b00f8f40be7e9fd
0b00f8f40be7e9fd
0b00f8f40be7e9fd
0b00f8f40be7e9fd
0b00f8f40be7e9fd
f9120d0bfbea070c
f9120d0bfbea070c
f9120d0bfbea070c
f9120d0bfbea070c
f9120d0bfbea070c
f9120d0bfbea070c
f9120d0bfbea070c
f9120d0bfbea070c
0e02f008fe06f9f1
0e02f008fe06f9f1
0e02f008fe06f9f1
0e02f008fe06f9f1
0e02f008fe06f9f1
0e02f008fe06f9f1
0e02f008fe06f9f1
0e02f008fe06f9f1
f01101f7f7fb0bf8
f01101f7f7fb0bf8
f01101f7f7fb0bf8
f01101f7f7fb0bf8
f01101f7f7fb0bf8
f01101f7f7fb0bf8
f01101f7f7fb0bf8
f01101f7f7fb0bf8
f4151e0703fb09f9
f4151e0703fb09f9
f4151e0703fb09f9
f4151e0703fb09f9
f4151e0703fb09f9
f4151e0703fb09f9
f4151e0703fb09f9
f4151e0703fb09f9
fffffb0216020400
fffffb0216020400
fffffb0216020400
fffffb0216020400
fffffb0216020400
fffffb0216020400
fffffb0216020400
fffffb0216020400
fd07fb0ef8020101
fd07fb0ef8020101
fd07fb0ef8020101
fd07fb0ef8020101
fd07fb0ef8020101
fd07fb0ef8020101
fd07fb0ef8020101
fd07fb0ef8020101
1bf3feebf7edff03
1bf3feebf7edff03
1bf3feebf7edff03
1bf3feebf7edff03
1bf3feebf7edff03
1bf3feebf7edff03
1bf3feebf7edff03
1bf3feebf7edff03
0106040003faf7f9
0106040003faf7f9
0106040003faf7f9
0106040003faf7f9
0106040003faf7f9
0106040003faf7f9
0106040003faf7f9
0106040003faf7f9
f60ffb02ff06f916
f60ffb02ff06f916
f60ffb02ff06f916
f60ffb02ff06f916
f60ffb02ff06f916
f60ffb02ff06f916
f60ffb02ff06f916
f60ffb02ff06f916
0000000002010101
0000000002010101
0000000002010101
0000000002010101
0000000002010101
0000000002010101
0000000002010101
0000000002010101
010000000000ff00
010000000000ff00
010000000000ff00
010000000000ff00
010000000000ff00
010000000000ff00
010000000000ff00
010000000000ff00
0101ff00ffffffff
0101ff00ffffffff
0101ff00ffffffff
0101ff00ffffffff
0101ff00ffffffff
0101ff00ffffffff
0101ff00ffffffff
0101ff00ffffffff
ffff00ffff000001
ffff00ffff000001
ffff00ffff000001
ffff00ffff000001
ffff00ffff000001
ffff00ffff000001
ffff00ffff000001
ffff00ffff000001
01fe000000ff01ff
01fe000000ff01ff
01fe000000ff01ff
01fe000000ff01ff
01fe000000ff01ff
01fe000000ff01ff
01fe000000ff01ff
01fe000000ff01ff
ff000000000100ff
ff000000000100ff
ff000000000100ff
ff000000000100ff
ff000000000100ff
ff000000000100ff
ff000000000100ff
ff000000000100ff
00ffff00fe000200
00ffff00fe000200
00ffff00fe000200
00ffff00fe000200
00ffff00fe000200
00ffff00fe000200
00ffff00fe000200
00ffff00fe000200
02ff010101000001
02ff010101000001
02ff010101000001
02ff010101000001
02ff010101000001
02ff010101000001
02ff010101000001
02ff010101000001
fffeff01010100ff
fffeff01010100ff
fffeff01010100ff
fffeff01010100ff
fffeff01010100ff
fffeff01010100ff
fffeff01010100ff
fffeff01010100ff
0100ff01ff03fe00
0100ff01ff03fe00
0100ff01ff03fe00
0100ff01ff03fe00
0100ff01ff03fe00
0100ff01ff03fe00
0100ff01ff03fe00
0100ff01ff03fe00
0000000000feff01
0000000000feff01
0000000000feff01
0000000000feff01
0000000000feff01
0000000000feff01
0000000000feff01
0000000000feff01
ff00fffeffffff02
ff00fffeffffff02
ff00fffeffffff02
ff00fffeffffff02
ff00fffeffffff02
ff00fffeffffff02
ff00fffeffffff02
ff00fffeffffff02
0001fe01ff0100fe
0001fe01ff0100fe
0001fe01ff0100fe
0001fe01ff0100fe
0001fe01ff0100fe
0001fe01ff0100fe
0001fe01ff0100fe
0001fe01ff0100fe
ff00fe00ff0100ff
ff00fe00ff0100ff
ff00fe00ff0100ff
ff00fe00ff0100ff
ff00fe00ff0100ff
ff00fe00ff0100ff
ff00fe00ff0100ff
ff00fe00ff0100ff
fdff0001ffff0001
fdff0001ffff0001
fdff0001ffff0001
fdff0001ffff0001
fdff0001ffff0001
fdff0001ffff0001
fdff0001ffff0001
fdff0001ffff0001
00ff00ffff010000
00ff00ffff010000
00ff00ffff010000
00ff00ffff010000
00ff00ffff010000
00ff00ffff010000
00ff00ffff010000
00ff00ffff010000
020600040b0d06fa
020600040b0d06fa
020600040b0d06fa
020600040b0d06fa
020600040b0d06fa
020600040b0d06fa
020600040b0d06fa
020600040b0d06fa
07fef9fdf802fb04
07fef9fdf802fb04
07fef9fdf802fb04
07fef9fdf802fb04
07fef9fdf802fb04
07fef9fdf802fb04
07fef9fdf802fb04
07fef9fdf802fb04
f90af9010afb0601
f90af9010afb0601
f90af9010afb0601
f90af9010afb0601
f90af9010afb0601
f90af9010afb0601
f90af9010afb0601
f90af9010afb0601
090000fef8090a07
090000fef8090a07
090000fef8090a07
090000fef8090a07
090000fef8090a07
090000fef8090a07
090000fef8090a07
090000fef8090a07
fb0a07f9f9fbfa05
fb0a07f9f9fbfa05
fb0a07f9f9fbfa05
fb0a07f9f9fbfa05
fb0a07f9f9fbfa05
fb0a07f9f9fbfa05
fb0a07f9f9fbfa05
fb0a07f9f9fbfa05
fb08fd00fcfffafb
fb08fd00fcfffafb
fb08fd00fcfffafb
fb08fd00fcfffafb
fb08fd00fcfffafb
fb08fd00fcfffafb
fb08fd00fcfffafb
fb08fd00fcfffafb
020706fe03f80407
020706fe03f80407
020706fe03f80407
020706fe03f80407
020706fe03f80407
020706fe03f80407
020706fe03f80407
020706fe03f80407
fe0409fa06010a06
fe0409fa06010a06
fe0409fa06010a06
fe0409fa06010a06
fe0409fa06010a06
fe0409fa06010a06
fe0409fa06010a06
fe0409fa06010a06
f9050106ff09fef8
f9050106ff09fef8
f9050106ff09fef8
f9050106ff09fef8
f9050106ff09fef8
f9050106ff09fef8
f9050106ff09fef8
f9050106ff09fef8
fcfa090303fe0906
fcfa090303fe0906
fcfa090303fe0906
fcfa090303fe0906
fcfa090303fe0906
fcfa090303fe0906
fcfa090303fe0906
fcfa090303fe0906
0301fcfd00fb0608
0301fcfd00fb0608
0301fcfd00fb0608
0301fcfd00fb0608
0301fcfd00fb0608
0301fcfd00fb0608
0301fcfd00fb0608
0301fcfd00fb0608
fdfe07fa01fb030a
fdfe07fa01fb030a
fdfe07fa01fb030a
fdfe07fa01fb030a
fdfe07fa01fb030a
fdfe07fa01fb030a
fdfe07fa01fb030a
fdfe07fa01fb030a
04030cfbfd0a0908
04030cfbfd0a0908
04030cfbfd0a0908
04030cfbfd0a0908
04030cfbfd0a0908
04030cfbfd0a0908
04030cfbfd0a0908
04030cfbfd0a0908
fb0afbf9fe090302
fb0afbf9fe090302
fb0afbf9fe090302
fb0afbf9fe090302
fb0afbf9fe090302
fb0afbf9fe090302
fb0afbf9fe090302
fb0afbf9fe090302
020403fafcf9fb04
020403fafcf9fb04
020403fafcf9fb04
020403fafcf9fb04
020403fafcf9fb04
020403fafcf9fb04
020403fafcf9fb04
020403fafcf9fb04
0c09f80806010bf9
0c09f80806010bf9
0c09f80806010bf9
0c09f80806010bf9
0c09f80806010bf9
0c09f80806010bf9
0c09f80806010bf9
0c09f80806010bf9
f10e1dfeff09ffff
f10e1dfeff09ffff
f10e1dfeff09ffff
f10e1dfeff09ffff
f10e1dfeff09ffff
f10e1dfeff09ffff
f10e1dfeff09ffff
f10e1dfeff09ffff
040707f80f050d0b
040707f80f050d0b
040707f80f050d0b
040707f80f050d0b
040707f80f050d0b
040707f80f050d0b
040707f80f050d0b
040707f80f050d0b
1402fb10fb05ff13
1402fb10fb05ff13
1402fb10fb05ff13
1402fb10fb05ff13
1402fb10fb05ff13
1402fb10fb05ff13
1402fb10fb05ff13
1402fb10fb05ff13
01f5fc080cf00200
01f5fc080cf00200
01f5fc080cf00200
01f5fc080cf00200
01f5fc080cf00200
01f5fc080cf00200
01f5fc080cf00200
01f5fc080cf00200
0701e6050b12fe06
0701e6050b12fe06
0701e6050b12fe06
0701e6050b12fe06
0701e6050b12fe06
0701e6050b12fe06
0701e6050b12fe06
0701e6050b12fe06
f40b030112f8f2ff
f40b030112f8f2ff
f40b030112f8f2ff
f40b030112f8f2ff
f40b030112f8f2ff
f40b030112f8f2ff
f40b030112f8f2ff
f40b030112f8f2ff
00060907091203f0
00060907091203f0
00060907091203f0
00060907091203f0
00060907091203f0
00060907091203f0
00060907091203f0
00060907091203f0
f80104f1f3070efe
f80104f1f3070efe
f80104f1f3070efe
f80104f1f3070efe
f80104f1f3070efe
f80104f1f3070efe
f80104f1f3070efe
f80104f1f3070efe
040306040902fef0
040306040902fef0
040306040902fef0
040306040902fef0
040306040902fef0
040306040902fef0
040306040902fef0
040306040902fef0
0c07ff020311f20d
0c07ff020311f20d
0c07ff020311f20d
0c07ff020311f20d
0c07ff020311f20d
0c07ff020311f20d
0c07ff020311f20d
0c07ff020311f20d
fe071509fc0c15f9
fe071509fc0c15f9
fe071509fc0c15f9
fe071509fc0c15f9
fe071509fc0c15f9
fe071509fc0c15f9
fe071509fc0c15f9
fe071509fc0c15f9
0508ff0601091d0d
0508ff0601091d0d
0508ff0601091d0d
0508ff0601091d0d
0508ff0601091d0d
0508ff0601091d0d
0508ff0601091d0d
0508ff0601091d0d
0407120405edfcf9
0407120405edfcf9
0407120405edfcf9
0407120405edfcf9
0407120405edfcf9
0407120405edfcf9
0407120405edfcf9
0407120405edfcf9
010a0c00f6fc0416
010a0c00f6fc0416
010a0c00f6fc0416
010a0c00f6fc0416
010a0c00f6fc0416
010a0c00f6fc0416
010a0c00f6fc0416
010a0c00f6fc0416
070110011c0cfd08
070110011c0cfd08
070110011c0cfd08
070110011c0cfd08
070110011c0cfd08
070110011c0cfd08
070110011c0cfd08
070110011c0cfd08
fd0603f70ef40904
fd0603f70ef40904
fd0603f70ef40904
fd0603f70ef40904
fd0603f70ef40904
fd0603f70ef40904
fd0603f70ef40904
fd0603f70ef40904
ff02fb0005fbfd02
ff02fb0005fbfd02
ff02fb0005fbfd02
ff02fb0005fbfd02
ff02fb0005fbfd02
ff02fb0005fbfd02
ff02fb0005fbfd02
ff02fb0005fbfd02
fdfd00ff00ff0101
fdfd00ff00ff0101
fdfd00ff00ff0101
fdfd00ff00ff0101
fdfd00ff00ff0101
fdfd00ff00ff0101
fdfd00ff00ff0101
fdfd00ff00ff0101
04fffc000300ff01
04fffc000300ff01
04fffc000300ff01
04fffc000300ff01
04fffc000300ff01
04fffc000300ff01
04fffc000300ff01
04fffc000300ff01
fdfd0001fefdfefd
fdfd0001fefdfefd
fdfd0001fefdfefd
fdfd0001fefdfefd
fdfd0001fefdfefd
fdfd0001fefdfefd
fdfd0001fefdfefd
fdfd0001fefdfefd
fdff00fe00fefd00
fdff00fe00fefd00
fdff00fe00fefd00
fdff00fe00fefd00
fdff00fe00fefd00
fdff00fe00fefd00
fdff00fe00fefd00
fdff00fe00fefd00
fc02fffefdfe01fe
fc02fffefdfe01fe
fc02fffefdfe01fe
fc02fffefdfe01fe
fc02fffefdfe01fe
fc02fffefdfe01fe
fc02fffefdfe01fe
fc02fffefdfe01fe
02fdfffd01fdfefd
02fdfffd01fdfefd
02fdfffd01fdfefd
02fdfffd01fdfefd
02fdfffd01fdfefd
02fdfffd01fdfefd
02fdfffd01fdfefd
02fdfffd01fdfefd
04fcfd00ff0000ff
04fcfd00ff0000ff
04fcfd00ff0000ff
04fcfd00ff0000ff
04fcfd00ff0000ff
04fcfd00ff0000ff
04fcfd00ff0000ff
04fcfd00ff0000ff
00fd01fe0000ff00
00fd01fe0000ff00
00fd01fe0000ff00
00fd01fe0000ff00
00fd01fe0000ff00
00fd01fe0000ff00
00fd01fe0000ff00
00fd01fe0000ff00
03fffffe01ffff01
03fffffe01ffff01
03fffffe01ffff01
03fffffe01ffff01
03fffffe01ffff01
03fffffe01ffff01
03fffffe01ffff01
03fffffe01ffff01
0002ff03fc01fb02
0002ff03fc01fb02
0002ff03fc01fb02
0002ff03fc01fb02
0002ff03fc01fb02
0002ff03fc01fb02
0002ff03fc01fb02
0002ff03fc01fb02
05fdfefefefdfe01
05fdfefefefdfe01
05fdfefefefdfe01
05fdfefefefdfe01
05fdfefefefdfe01
05fdfefefefdfe01
05fdfefefefdfe01
05fdfefefefdfe01
ff02fffe010003fe
ff02fffe010003fe
ff02fffe010003fe
ff02fffe010003fe
ff02fffe010003fe
ff02fffe010003fe
ff02fffe010003fe
ff02fffe010003fe
fe03020000ff0101
fe03020000ff0101
fe03020000ff0101
fe03020000ff0101
fe03020000ff0101
fe03020000ff0101
fe03020000ff0101
fe03020000ff0101
0101fefffeff02fb
0101fefffeff02fb
0101fefffeff02fb
0101fefffeff02fb
0101fefffeff02fb
0101fefffeff02fb
0101fefffeff02fb
0101fefffeff02fb
ffff0103fe00feff
ffff0103fe00feff
ffff0103fe00feff
ffff0103fe00feff
ffff0103fe00feff
ffff0103fe00feff
ffff0103fe00feff
ffff0103fe00feff
0205fc02fdff0406
0205fc02fdff0406
0205fc02fdff0406
0205fc02fdff0406
0205fc02fdff0406
0205fc02fdff0406
0205fc02fdff0406
0205fc02fdff0406
000601fa040006fc
000601fa040006fc
000601fa040006fc
000601fa040006fc
000601fa040006fc
000601fa040006fc
000601fa040006fc
000601fa040006fc
fa010803fcfcfd04
fa010803fcfcfd04
fa010803fcfcfd04
fa010803fcfcfd04
fa010803fcfcfd04
fa010803fcfcfd04
fa010803fcfcfd04
fa010803fcfcfd04
07fffffffe05fcfd
07fffffffe05fcfd
07fffffffe05fcfd
07fffffffe05fcfd
07fffffffe05fcfd
07fffffffe05fcfd
07fffffffe05fcfd
07fffffffe05fcfd
fd04f900f9ff05fa
fd04f900f9ff05fa
fd04f900f9ff05fa
fd04f900f9ff05fa
fd04f900f9ff05fa
fd04f900f9ff05fa
fd04f900f9ff05fa
fd04f900f9ff05fa
01fb02fc07fd0104
01fb02fc07fd0104
01fb02fc07fd0104
01fb02fc07fd0104
01fb02fc07fd0104
01fb02fc07fd0104
01fb02fc07fd0104
01fb02fc07fd0104
0400020602fffafc
0400020602fffafc
0400020602fffafc
0400020602fffafc
0400020602fffafc
0400020602fffafc
0400020602fffafc
0400020602fffafc
0005070205fe04ff
0005070205fe04ff
0005070205fe04ff
0005070205fe04ff
0005070205fe04ff
0005070205fe04ff
0005070205fe04ff
0005070205fe04ff
0006fb040afbfffe
0006fb040afbfffe
0006fb040afbfffe
0006fb040afbfffe
0006fb040afbfffe
0006fb040afbfffe
0006fb040afbfffe
0006fb040afbfffe
fffdf9fefffbfffc
fffdf9fefffbfffc
fffdf9fefffbfffc
fffdf9fefffbfffc
fffdf9fefffbfffc
fffdf9fefffbfffc
fffdf9fefffbfffc
fffdf9fefffbfffc
f9fc050300fe04fc
f9fc050300fe04fc
f9fc050300fe04fc
f9fc050300fe04fc
f9fc050300fe04fc
f9fc050300fe04fc
f9fc050300fe04fc
f9fc050300fe04fc
07fa050104060300
07fa050104060300
07fa050104060300
07fa050104060300
07fa050104060300
07fa050104060300
07fa050104060300
07fa050104060300
fbfb050707fafcfb
fbfb050707fafcfb
fbfb050707fafcfb
fbfb050707fafcfb
fbfb050707fafcfb
fbfb050707fafcfb
fbfb050707fafcfb
fbfb050707fafcfb
03fbfc0001050606
03fbfc0001050606
03fbfc0001050606
03fbfc0001050606
03fbfc0001050606
03fbfc0001050606
03fbfc0001050606
03fbfc0001050606
f9fa0502fa00fdfb
f9fa0502fa00fdfb
f9fa0502fa00fdfb
f9fa0502fa00fdfb
f9fa0502fa00fdfb
f9fa0502fa00fdfb
f9fa0502fa00fdfb
f9fa0502fa00fdfb
fe030006fffbfc06
fe030006fffbfc06
fe030006fffbfc06
fe030006fffbfc06
fe030006fffbfc06
fe030006fffbfc06
fe030006fffbfc06
fe030006fffbfc06
f9050108fe0b03fe
f9050108fe0b03fe
f9050108fe0b03fe
f9050108fe0b03fe
f9050108fe0b03fe
f9050108fe0b03fe
f9050108fe0b03fe
f9050108fe0b03fe
f80004ff00f7faf7
f80004ff00f7faf7
f80004ff00f7faf7
f80004ff00f7faf7
f80004ff00f7faf7
f80004ff00f7faf7
f80004ff00f7faf7
f80004ff00f7faf7
fd030bfb02f6f804
fd030bfb02f6f804
fd030bfb02f6f804
fd030bfb02f6f804
fd030bfb02f6f804
fd030bfb02f6f804
fd030bfb02f6f804
fd030bfb02f6f804
fa0301feff010200
fa0301feff010200
fa0301feff010200
fa0301feff010200
fa0301feff010200
fa0301feff010200
fa0301feff010200
fa0301feff010200
02ff0a02fa04fe06
02ff0a02fa04fe06
02ff0a02fa04fe06
02ff0a02fa04fe06
02ff0a02fa04fe06
02ff0a02fa04fe06
02ff0a02fa04fe06
02ff0a02fa04fe06
0bfdfdfe07fefb02
0bfdfdfe07fefb02
0bfdfdfe07fefb02
0bfdfdfe07fefb02
0bfdfdfe07fefb02
0bfdfdfe07fefb02
0bfdfdfe07fefb02
0bfdfdfe07fefb02
fd01fd08080600fe
fd01fd08080600fe
fd01fd08080600fe
fd01fd08080600fe
fd01fd08080600fe
fd01fd08080600fe
fd01fd08080600fe
fd01fd08080600fe
02010c04fffcf704
02010c04fffcf704
02010c04fffcf704
02010c04fffcf704
02010c04fffcf704
02010c04fffcf704
02010c04fffcf704
02010c04fffcf704
02faf8fe0cfd0b07
02faf8fe0cfd0b07
02faf8fe0cfd0b07
02faf8fe0cfd0b07
02faf8fe0cfd0b07
02faf8fe0cfd0b07
02faf8fe0cfd0b07
02faf8fe0cfd0b07
fdfe0604fbfffcf7
fdfe0604fbfffcf7
fdfe0604fbfffcf7
fdfe0604fbfffcf7
fdfe0604fbfffcf7
fdfe0604fbfffcf7
fdfe0604fbfffcf7
fdfe0604fbfffcf7
07f7000304ff0d0c
07f7000304ff0d0c
07f7000304ff0d0c
07f7000304ff0d0c
07f7000304ff0d0c
07f7000304ff0d0c
07f7000304ff0d0c
07f7000304ff0d0c
0008f802fffbff0c
0008f802fffbff0c
0008f802fffbff0c
0008f802fffbff0c
0008f802fffbff0c
0008f802fffbff0c
0008f802fffbff0c
0008f802fffbff0c
0105f8ff02fafeff
0105f8ff02fafeff
0105f8ff02fafeff
0105f8ff02fafeff
0105f8ff02fafeff
0105f8ff02fafeff
0105f8ff02fafeff
0105f8ff02fafeff
f804010000fb0901
f804010000fb0901
f804010000fb0901
f804010000fb0901
f804010000fb0901
f804010000fb0901
f804010000fb0901
f804010000fb0901
fa07fb03fdf70200
fa07fb03fdf70200
fa07fb03fdf70200
fa07fb03fdf70200
fa07fb03fdf70200
fa07fb03fdf70200
fa07fb03fdf70200
fa07fb03fdf70200
fb0705080c0100f8
fb0705080c0100f8
fb0705080c0100f8
fb0705080c0100f8
fb0705080c0100f8
fb0705080c0100f8
fb0705080c0100f8
fb0705080c0100f8
01ff00fe01000000
01ff00fe01000000
01ff00fe01000000
01ff00fe01000000
01ff00fe01000000
01ff00fe01000000
01ff00fe01000000
01ff00fe01000000
fe0100ff00000100
fe0100ff00000100
fe0100ff00000100
fe0100ff00000100
fe0100ff00000100
fe0100ff00000100
fe0100ff00000100
fe0100ff00000100
01ff000000000100
01ff000000000100
01ff000000000100
01ff000000000100
01ff000000000100
01ff000000000100
01ff000000000100
01ff000000000100
ff000000ffff0000
ff000000ffff0000
ff000000ffff0000
ff000000ffff0000
ff000000ffff0000
ff000000ffff0000
ff000000ffff0000
ff000000ffff0000
0100ff000002ff00
0100ff000002ff00
0100ff000002ff00
0100ff000002ff00
0100ff000002ff00
0100ff000002ff00
0100ff000002ff00
0100ff000002ff00
0000000000ffff01
0000000000ffff01
0000000000ffff01
0000000000ffff01
0000000000ffff01
0000000000ffff01
0000000000ffff01
0000000000ffff01
00ff01ffff000100
00ff01ffff000100
00ff01ffff000100
00ff01ffff000100
00ff01ffff000100
00ff01ffff000100
00ff01ffff000100
00ff01ffff000100
00ffff00000000ff
00ffff00000000ff
00ffff00000000ff
00ffff00000000ff
00ffff00000000ff
00ffff00000000ff
00ffff00000000ff
00ffff00000000ff
0101000200000000
0101000200000000
0101000200000000
0101000200000000
0101000200000000
0101000200000000
0101000200000000
0101000200000000
0000ff0002000100
0000ff0002000100
0000ff0002000100
0000ff0002000100
0000ff0002000100
0000ff0002000100
0000ff0002000100
0000ff0002000100
00fffeff00000100
00fffeff00000100
00fffeff00000100
00fffeff00000100
00fffeff00000100
00fffeff00000100
00fffeff00000100
00fffeff00000100
01ffffff000100fe
01ffffff000100fe
01ffffff000100fe
01ffffff000100fe
01ffffff000100fe
01ffffff000100fe
01ffffff000100fe
01ffffff000100fe
00fe01000000ff00
00fe01000000ff00
00fe01000000ff00
00fe01000000ff00
00fe01000000ff00
00fe01000000ff00
00fe01000000ff00
00fe01000000ff00
00fffe00ff0000fe
00fffe00ff0000fe
00fffe00ff0000fe
00fffe00ff0000fe
00fffe00ff0000fe
00fffe00ff0000fe
00fffe00ff0000fe
00fffe00ff0000fe
000002ff00010000
000002ff00010000
000002ff00010000
000002ff00010000
000002ff00010000
000002ff00010000
000002ff00010000
000002ff00010000
fffeff00fffe01ff
fffeff00fffe01ff
fffeff00fffe01ff
fffeff00fffe01ff
fffeff00fffe01ff
fffeff00fffe01ff
fffeff00fffe01ff
fffeff00fffe01ff
070403010cfef9fa
070403010cfef9fa
070403010cfef9fa
070403010cfef9fa
070403010cfef9fa
070403010cfef9fa
070403010cfef9fa
070403010cfef9fa
070400fafdfcfb02
070400fafdfcfb02
070400fafdfcfb02
070400fafdfcfb02
070400fafdfcfb02
070400fafdfcfb02
070400fafdfcfb02
070400fafdfcfb02
04fbfc090403fffe
04fbfc090403fffe
04fbfc090403fffe
04fbfc090403fffe
04fbfc090403fffe
04fbfc090403fffe
04fbfc090403fffe
04fbfc090403fffe
fe0afdf902ff04fa
fe0afdf902ff04fa
fe0afdf902ff04fa
fe0afdf902ff04fa
fe0afdf902ff04fa
fe0afdf902ff04fa
fe0afdf902ff04fa
fe0afdf902ff04fa
fe030302fdf60104
fe030302fdf60104
fe030302fdf60104
fe030302fdf60104
fe030302fdf60104
fe030302fdf60104
fe030302fdf60104
fe030302fdf60104
fcfc020afd0407ff
fcfc020afd0407ff
fcfc020afd0407ff
fcfc020afd0407ff
fcfc020afd0407ff
fcfc020afd0407ff
fcfc020afd0407ff
fcfc020afd0407ff
03fa0001070701fd
03fa0001070701fd
03fa0001070701fd
03fa0001070701fd
03fa0001070701fd
03fa0001070701fd
03fa0001070701fd
03fa0001070701fd
050506faf906ff00
050506faf906ff00
050506faf906ff00
050506faf906ff00
050506faf906ff00
050506faf906ff00
050506faf906ff00
050506faf906ff00
fcfc0507fafafc02
fcfc0507fafafc02
fcfc0507fafafc02
fcfc0507fafafc02
fcfc0507fafafc02
fcfc0507fafafc02
fcfc0507fafafc02
fcfc0507fafafc02
0306fc0609050500
0306fc0609050500
0306fc0609050500
0306fc0609050500
0306fc0609050500
0306fc0609050500
0306fc0609050500
0306fc0609050500
fefdfb0109060406
fefdfb0109060406
fefdfb0109060406
fefdfb0109060406
fefdfb0109060406
fefdfb0109060406
fefdfb0109060406
fefdfb0109060406
0601fe04f6fafafa
0601fe04f6fafafa
0601fe04f6fafafa
0601fe04f6fafafa
0601fe04f6fafafa
0601fe04f6fafafa
0601fe04f6fafafa
0601fe04f6fafafa
0303fafe04fdfb08
0303fafe04fdfb08
0303fafe04fdfb08
0303fafe04fdfb08
0303fafe04fdfb08
0303fafe04fdfb08
0303fafe04fdfb08
0303fafe04fdfb08
03f9fb0401f9fffb
03f9fb0401f9fffb
03f9fb0401f9fffb
03f9fb0401f9fffb
03f9fb0401f9fffb
03f9fb0401f9fffb
03f9fb0401f9fffb
03f9fb0401f9fffb
fc07fe08fdfc07f8
fc07fe08fdfc07f8
fc07fe08fdfc07f8
fc07fe08fdfc07f8
fc07fe08fdfc07f8
fc07fe08fdfc07f8
fc07fe08fdfc07f8
fc07fe08fdfc07f8
fd0007060207fa04
fd0007060207fa04
fd0007060207fa04
fd0007060207fa04
fd0007060207fa04
fd0007060207fa04
fd0007060207fa04
fd0007060207fa04
000104fc0dfe09fb
000104fc0dfe09fb
000104fc0dfe09fb
000104fc0dfe09fb
000104fc0dfe09fb
000104fc0dfe09fb
000104fc0dfe09fb
000104fc0dfe09fb
fb0903fc02fbff00
fb0903fc02fbff00
fb0903fc02fbff00
fb0903fc02fbff00
fb0903fc02fbff00
fb0903fc02fbff00
fb0903fc02fbff00
fb0903fc02fbff00
0301f8000501fd08
0301f8000501fd08
0301f8000501fd08
0301f8000501fd08
0301f8000501fd08
0301f8000501fd08
0301f8000501fd08
0301f8000501fd08
0c0003fcfd01ff00
0c0003fcfd01ff00
0c0003fcfd01ff00
0c0003fcfd01ff00
0c0003fcfd01ff00
0c0003fcfd01ff00
0c0003fcfd01ff00
0c0003fcfd01ff00
fffffafb08060200
fffffafb08060200
fffffafb08060200
fffffafb08060200
fffffafb08060200
fffffafb08060200
fffffafb08060200
fffffafb08060200
fb02000200ff0301
fb02000200ff0301
fb02000200ff0301
fb02000200ff0301
fb02000200ff0301
fb02000200ff0301
fb02000200ff0301
fb02000200ff0301
05040200fdfd00fc
05040200fdfd00fc
05040200fdfd00fc
05040200fdfd00fc
05040200fdfd00fc
05040200fdfd00fc
05040200fdfd00fc
05040200fdfd00fc
fc0105fe07010c01
fc0105fe07010c01
fc0105fe07010c01
fc0105fe07010c01
fc0105fe07010c01
fc0105fe07010c01
fc0105fe07010c01
fc0105fe07010c01
00fd050306fb03f8
00fd050306fb03f8
00fd050306fb03f8
00fd050306fb03f8
00fd050306fb03f8
00fd050306fb03f8
00fd050306fb03f8
00fd050306fb03f8
07020afa0201fd06
07020afa0201fd06
07020afa0201fd06
07020afa0201fd06
07020afa0201fd06
07020afa0201fd06
07020afa0201fd06
07020afa0201fd06
0dfd03ff070a0401
0dfd03ff070a0401
0dfd03ff070a0401
0dfd03ff070a0401
0dfd03ff070a0401
0dfd03ff070a0401
0dfd03ff070a0401
0dfd03ff070a0401
ff00fbfc040003fd
ff00fbfc040003fd
ff00fbfc040003fd
ff00fbfc040003fd
ff00fbfc040003fd
ff00fbfc040003fd
ff00fbfc040003fd
ff00fbfc040003fd
00fb07fdfdf705fb
00fb07fdfdf705fb
00fb07fdfdf705fb
00fb07fdfdf705fb
00fb07fdfdf705fb
00fb07fdfdf705fb
00fb07fdfdf705fb
00fb07fdfdf705fb
fb0cf9090904ff03
fb0cf9090904ff03
fb0cf9090904ff03
fb0cf9090904ff03
fb0cf9090904ff03
fb0cf9090904ff03
fb0cf9090904ff03
fb0cf9090904ff03
00fd05f8fffb01f1
00fd05f8fffb01f1
00fd05f8fffb01f1
00fd05f8fffb01f1
00fd05f8fffb01f1
00fd05f8fffb01f1
00fd05f8fffb01f1
00fd05f8fffb01f1
fdfcfe0108fef601
fdfcfe0108fef601
fdfcfe0108fef601
fdfcfe0108fef601
fdfcfe0108fef601
fdfcfe0108fef601
fdfcfe0108fef601
fdfcfe0108fef601
00ff00ff0000fefd
00ff00ff0000fefd
00ff00ff0000fefd
00ff00ff0000fefd
00ff00ff0000fefd
00ff00ff0000fefd
00ff00ff0000fefd
00ff00ff0000fefd
fd00fe010101ff00
fd00fe010101ff00
fd00fe010101ff00
fd00fe010101ff00
fd00fe010101ff00
fd00fe010101ff00
fd00fe010101ff00
fd00fe010101ff00
02ff010200ffff02
02ff010200ffff02
02ff010200ffff02
02ff010200ffff02
02ff010200ffff02
02ff010200ffff02
02ff010200ffff02
02ff010200ffff02
01fe010000010000
01fe010000010000
01fe010000010000
01fe010000010000
01fe010000010000
01fe010000010000
01fe010000010000
01fe010000010000
00ff01fe01ff0000
00ff01fe01ff0000
00ff01fe01ff0000
00ff01fe01ff0000
00ff01fe01ff0000
00ff01fe01ff0000
00ff01fe01ff0000
00ff01fe01ff0000
0102020100ffffff
0102020100ffffff
0102020100ffffff
0102020100ffffff
0102020100ffffff
0102020100ffffff
0102020100ffffff
0102020100ffffff
01ff010101020102
01ff010101020102
01ff010101020102
01ff010101020102
01ff010101020102
01ff010101020102
01ff010101020102
01ff010101020102
0000ff0002020101
0000ff0002020101
0000ff0002020101
0000ff0002020101
0000ff0002020101
0000ff0002020101
0000ff0002020101
0000ff0002020101
010301000002ff00
010301000002ff00
010301000002ff00
010301000002ff00
010301000002ff00
010301000002ff00
010301000002ff00
010301000002ff00
fd01000001fffe00
fd01000001fffe00
fd01000001fffe00
fd01000001fffe00
fd01000001fffe00
fd01000001fffe00
fd01000001fffe00
fd01000001fffe00
ff0001fdff00ff01
ff0001fdff00ff01
ff0001fdff00ff01
ff0001fdff00ff01
ff0001fdff00ff01
ff0001fdff00ff01
ff0001fdff00ff01
ff0001fdff00ff01
01fe010200fc00ff
01fe010200fc00ff
01fe010200fc00ff
01fe010200fc00ff
01fe010200fc00ff
01fe010200fc00ff
01fe010200fc00ff
01fe010200fc00ff
0000ff01fefd0001
0000ff01fefd0001
0000ff01fefd0001
0000ff01fefd0001
0000ff01fefd0001
0000ff01fefd0001
0000ff01fefd0001
0000ff01fefd0001
fe00010000000001
fe00010000000001
fe00010000000001
fe00010000000001
fe00010000000001
fe00010000000001
fe00010000000001
fe00010000000001
fffefe00fe00ff01
fffefe00fe00ff01
fffefe00fe00ff01
fffefe00fe00ff01
fffefe00fe00ff01
fffefe00fe00ff01
fffefe00fe00ff01
fffefe00fe00ff01
0101ff000000ff01
0101ff000000ff01
0101ff000000ff01
0101ff000000ff01
0101ff000000ff01
0101ff000000ff01
0101ff000000ff01
0101ff000000ff01
02030202fffb02fe
02030202fffb02fe
02030202fffb02fe
02030202fffb02fe
02030202fffb02fe
02030202fffb02fe
02030202fffb02fe
02030202fffb02fe
04fefefd00fdfffe
04fefefd00fdfffe
04fefefd00fdfffe
04fefefd00fdfffe
04fefefd00fdfffe
04fefefd00fdfffe
04fefefd00fdfffe
04fefefd00fdfffe
01fb02fefffc0002
01fb02fefffc0002
01fb02fefffc0002
01fb02fefffc0002
01fb02fefffc0002
01fb02fefffc0002
01fb02fefffc0002
01fb02fefffc0002
fcfd00fefbfa00fb
fcfd00fefbfa00fb
fcfd00fefbfa00fb
fcfd00fefbfa00fb
fcfd00fefbfa00fb
fcfd00fefbfa00fb
fcfd00fefbfa00fb
fcfd00fefbfa00fb
fd0204fcfe0404fc
fd0204fcfe0404fc
fd0204fcfe0404fc
fd0204fcfe0404fc
fd0204fcfe0404fc
fd0204fcfe0404fc
fd0204fcfe0404fc
fd0204fcfe0404fc
0003fcff01020004
0003fcff01020004
0003fcff01020004
0003fcff01020004
0003fcff01020004
0003fcff01020004
0003fcff01020004
0003fcff01020004
fa02fcfefbfefdfe
fa02fcfefbfefdfe
fa02fcfefbfefdfe
fa02fcfefbfefdfe
fa02fcfefbfefdfe
fa02fcfefbfefdfe
fa02fcfefbfefdfe
fa02fcfefbfefdfe
ff0303fcfffe0203
ff0303fcfffe0203
ff0303fcfffe0203
ff0303fcfffe0203
ff0303fcfffe0203
ff0303fcfffe0203
ff0303fcfffe0203
ff0303fcfffe0203
01fc03fefc0200fd
01fc03fefc0200fd
01fc03fefc0200fd
01fc03fefc0200fd
01fc03fefc0200fd
01fc03fefc0200fd
01fc03fefc0200fd
01fc03fefc0200fd
fc04fefefc01fe05
fc04fefefc01fe05
fc04fefefc01fe05
fc04fefefc01fe05
fc04fefefc01fe05
fc04fefefc01fe05
fc04fefefc01fe05
fc04fefefc01fe05
030302fefbfefe03
030302fefbfefe03
030302fefbfefe03
030302fefbfefe03
030302fefbfefe03
030302fefbfefe03
030302fefbfefe03
030302fefbfefe03
03fbfe0202fd03fd
03fbfe0202fd03fd
03fbfe0202fd03fd
03fbfe0202fd03fd
03fbfe0202fd03fd
03fbfe0202fd03fd
03fbfe0202fd03fd
03fbfe0202fd03fd
00fffcfb02fcfc01
00fffcfb02fcfc01
00fffcfb02fcfc01
00fffcfb02fcfc01
00fffcfb02fcfc01
00fffcfb02fcfc01
00fffcfb02fcfc01
00fffcfb02fcfc01
fe02030104ff03fc
fe02030104ff03fc
fe02030104ff03fc
fe02030104ff03fc
fe02030104ff03fc
fe02030104ff03fc
fe02030104ff03fc
fe02030104ff03fc
fc02fc03fffbfc04
fc02fc03fffbfc04
fc02fc03fffbfc04
fc02fc03fffbfc04
fc02fc03fffbfc04
fc02fc03fffbfc04
fc02fc03fffbfc04
fc02fc03fffbfc04
fefc04fe0402fdfc
fefc04fe0402fdfc
fefc04fe0402fdfc
fefc04fe0402fdfc
fefc04fe0402fdfc
fefc04fe0402fdfc
fefc04fe0402fdfc
fefc04fe0402fdfc
05f80102ff01f502
05f80102ff01f502
05f80102ff01f502
05f80102ff01f502
05f80102ff01f502
05f80102ff01f502
05f80102ff01f502
05f80102ff01f502
fff501ff010703fa
fff501ff010703fa
fff501ff010703fa
fff501ff010703fa
fff501ff010703fa
fff501ff010703fa
fff501ff010703fa
fff501ff010703fa
f903f900f7010004
f903f900f7010004
f903f900f7010004
f903f900f7010004
f903f900f7010004
f903f900f7010004
f903f900f7010004
f903f900f7010004
fafdfefe0afdffff
fafdfefe0afdffff
fafdfefe0afdffff
fafdfefe0afdffff
fafdfefe0afdffff
fafdfefe0afdffff
fafdfefe0afdffff
fafdfefe0afdffff
01000a0a060902fc
01000a0a060902fc
01000a0a060902fc
01000a0a060902fc
01000a0a060902fc
01000a0a060902fc
01000a0a060902fc
01000a0a060902fc
00fe05f5000b0206
00fe05f5000b0206
00fe05f5000b0206
00fe05f5000b0206
00fe05f5000b0206
00fe05f5000b0206
00fe05f5000b0206
00fe05f5000b0206
0108fcfc0302fb09
0108fcfc0302fb09
0108fcfc0302fb09
0108fcfc0302fb09
0108fcfc0302fb09
0108fcfc0302fb09
0108fcfc0302fb09
0108fcfc0302fb09
10ff01f7fbf70003
10ff01f7fbf70003
10ff01f7fbf70003
10ff01f7fbf70003
10ff01f7fbf70003
10ff01f7fbf70003
10ff01f7fbf70003
10ff01f7fbf70003
fdfbfbfefafd03fd
fdfbfbfefafd03fd
fdfbfbfefafd03fd
fdfbfbfefafd03fd
fdfbfbfefafd03fd
fdfbfbfefafd03fd
fdfbfbfefafd03fd
fdfbfbfefafd03fd
0100fefc06f80005
0100fefc06f80005
0100fefc06f80005
0100fefc06f80005
0100fefc06f80005
0100fefc06f80005
0100fefc06f80005
0100fefc06f80005
fd01fdfd020002f4
fd01fdfd020002f4
fd01fdfd020002f4
fd01fdfd020002f4
fd01fdfd020002f4
fd01fdfd020002f4
fd01fdfd020002f4
fd01fdfd020002f4
f9ff04f8f904fbf8
f9ff04f8f904fbf8
f9ff04f8f904fbf8
f9ff04f8f904fbf8
f9ff04f8f904fbf8
f9ff04f8f904fbf8
f9ff04f8f904fbf8
f9ff04f8f904fbf8
fbff0c040b030600
fbff0c040b030600
fbff0c040b030600
fbff0c040b030600
fbff0c040b030600
fbff0c040b030600
fbff0c040b030600
fbff0c040b030600
06fef6f502fbfe01
06fef6f502fbfe01
06fef6f502fbfe01
06fef6f502fbfe01
06fef6f502fbfe01
06fef6f502fbfe01
06fef6f502fbfe01
06fef6f502fbfe01
0007fdf902fb03f9
0007fdf902fb03f9
0007fdf902fb03f9
0007fdf902fb03f9
0007fdf902fb03f9
0007fdf902fb03f9
0007fdf902fb03f9
0007fdf902fb03f9
ffff0001fc0105fa
ffff0001fc0105fa
ffff0001fc0105fa
ffff0001fc0105fa
ffff0001fc0105fa
ffff0001fc0105fa
ffff0001fc0105fa
ffff0001fc0105fa
0100fe0001ff0202
0100fe0001ff0202
0100fe0001ff0202
0100fe0001ff0202
0100fe0001ff0202
0100fe0001ff0202
0100fe0001ff0202
0100fe0001ff0202
0100ff0000fe01ff
0100ff0000fe01ff
0100ff0000fe01ff
0100ff0000fe01ff
0100ff0000fe01ff
0100ff0000fe01ff
0100ff0000fe01ff
0100ff0000fe01ff
ff000000010000ff
ff000000010000ff
ff000000010000ff
ff000000010000ff
ff000000010000ff
ff000000010000ff
ff000000010000ff
ff000000010000ff
00ffff00ff0001ff
00ffff00ff0001ff
00ffff00ff0001ff
00ffff00ff0001ff
00ffff00ff0001ff
00ffff00ff0001ff
00ffff00ff0001ff
00ffff00ff0001ff
ff01ff0100010200
ff01ff0100010200
ff01ff0100010200
ff01ff0100010200
ff01ff0100010200
ff01ff0100010200
ff01ff0100010200
ff01ff0100010200
ff0002fffffeff01
ff0002fffffeff01
ff0002fffffeff01
ff0002fffffeff01
ff0002fffffeff01
ff0002fffffeff01
ff0002fffffeff01
ff0002fffffeff01
01ffff0101ff00fe
01ffff0101ff00fe
01ffff0101ff00fe
01ffff0101ff00fe
01ffff0101ff00fe
01ffff0101ff00fe
01ffff0101ff00fe
01ffff0101ff00fe
01010101ff00ff00
01010101ff00ff00
01010101ff00ff00
01010101ff00ff00
01010101ff00ff00
01010101ff00ff00
01010101ff00ff00
01010101ff00ff00
ff01ff0001fffeff
ff01ff0001fffeff
ff01ff0001fffeff
ff01ff0001fffeff
ff01ff0001fffeff
ff01ff0001fffeff
ff01ff0001fffeff
ff01ff0001fffeff
fffe000100000102
fffe000100000102
fffe000100000102
fffe000100000102
fffe000100000102
fffe000100000102
fffe000100000102
fffe000100000102
ff020000ff000100
ff020000ff000100
ff020000ff000100
ff020000ff000100
ff020000ff000100
ff020000ff000100
ff020000ff000100
ff020000ff000100
fefffdfeffff0100
fefffdfeffff0100
fefffdfeffff0100
fefffdfeffff0100
fefffdfeffff0100
fefffdfeffff0100
fefffdfeffff0100
fefffdfeffff0100
01ff000101fe0001
01ff000101fe0001
01ff000101fe0001
01ff000101fe0001
01ff000101fe0001
01ff000101fe0001
01ff000101fe0001
01ff000101fe0001
ff000200ff010101
ff000200ff010101
ff000200ff010101
ff000200ff010101
ff000200ff010101
ff000200ff010101
ff000200ff010101
ff000200ff010101
010100ff0001ffff
010100ff0001ffff
010100ff0001ffff
010100ff0001ffff
010100ff0001ffff
010100ff0001ffff
010100ff0001ffff
010100ff0001ffff
0000fe00fcfe01fe
0000fe00fcfe01fe
0000fe00fcfe01fe
0000fe00fcfe01fe
0000fe00fcfe01fe
0000fe00fcfe01fe
0000fe00fcfe01fe
0000fe00fcfe01fe
070305f805f90009
070305f805f90009
070305f805f90009
070305f805f90009
070305f805f90009
070305f805f90009
070305f805f90009
070305f805f90009
fc09fafa0304f909
fc09fafa0304f909
fc09fafa0304f909
fc09fafa0304f909
fc09fafa0304f909
fc09fafa0304f909
fc09fafa0304f909
fc09fafa0304f909
fe0705fafb07fef7
fe0705fafb07fef7
fe0705fafb07fef7
fe0705fafb07fef7
fe0705fafb07fef7
fe0705fafb07fef7
fe0705fafb07fef7
fe0705fafb07fef7
07f9fcfe01ff08fd
07f9fcfe01ff08fd
07f9fcfe01ff08fd
07f9fcfe01ff08fd
07f9fcfe01ff08fd
07f9fcfe01ff08fd
07f9fcfe01ff08fd
07f9fcfe01ff08fd
fb0702fbfbfb0407
fb0702fbfbfb0407
fb0702fbfbfb0407
fb0702fbfbfb0407
fb0702fbfbfb0407
fb0702fbfbfb0407
fb0702fbfbfb0407
fb0702fbfbfb0407
01fffb06fa0205fa
01fffb06fa0205fa
01fffb06fa0205fa
01fffb06fa0205fa
01fffb06fa0205fa
01fffb06fa0205fa
01fffb06fa0205fa
01fffb06fa0205fa
0006fdfb04fa05fb
0006fdfb04fa05fb
0006fdfb04fa05fb
0006fdfb04fa05fb
0006fdfb04fa05fb
0006fdfb04fa05fb
0006fdfb04fa05fb
0006fdfb04fa05fb
0702fb060806010a
0702fb060806010a
0702fb060806010a
0702fb060806010a
0702fb060806010a
0702fb060806010a
0702fb060806010a
0702fb060806010a
f907fa0006fd07ff
f907fa0006fd07ff
f907fa0006fd07ff
f907fa0006fd07ff
f907fa0006fd07ff
f907fa0006fd07ff
f907fa0006fd07ff
f907fa0006fd07ff
0208fcfb06fafefc
0208fcfb06fafefc
0208fcfb06fafefc
0208fcfb06fafefc
0208fcfb06fafefc
0208fcfb06fafefc
0208fcfb06fafefc
0208fcfb06fafefc
fc05fb0006fdfe07
fc05fb0006fdfe07
fc05fb0006fdfe07
fc05fb0006fdfe07
fc05fb0006fdfe07
fc05fb0006fdfe07
fc05fb0006fdfe07
fc05fb0006fdfe07
0707fb0407fc0505
0707fb0407fc0505
0707fb0407fc0505
0707fb0407fc0505
0707fb0407fc0505
0707fb0407fc0505
0707fb0407fc0505
0707fb0407fc0505
070602ff01fc09fa
070602ff01fc09fa
070602ff01fc09fa
070602ff01fc09fa
070602ff01fc09fa
070602ff01fc09fa
070602ff01fc09fa
070602ff01fc09fa
f904ff030601fafb
f904ff030601fafb
f904ff030601fafb
f904ff030601fafb
f904ff030601fafb
f904ff030601fafb
f904ff030601fafb
f904ff030601fafb
040606fa060005fc
040606fa060005fc
040606fa060005fc
040606fa060005fc
040606fa060005fc
040606fa060005fc
040606fa060005fc
040606fa060005fc
07fe0206000204fd
07fe0206000204fd
07fe0206000204fd
07fe0206000204fd
07fe0206000204fd
07fe0206000204fd
07fe0206000204fd
07fe0206000204fd
07ff0304f508ff00
07ff0304f508ff00
07ff0304f508ff00
07ff0304f508ff00
07ff0304f508ff00
07ff0304f508ff00
07ff0304f508ff00
07ff0304f508ff00
fc05fafbf8f80504
fc05fafbf8f80504
fc05fafbf8f80504
fc05fafbf8f80504
fc05fafbf8f80504
fc05fafbf8f80504
fc05fafbf8f80504
fc05fafbf8f80504
f9010201f6090004
f9010201f6090004
f9010201f6090004
f9010201f6090004
f9010201f6090004
f9010201f6090004
f9010201f6090004
f9010201f6090004
0101fc0501fe09f8
0101fc0501fe09f8
0101fc0501fe09f8
0101fc0501fe09f8
0101fc0501fe09f8
0101fc0501fe09f8
0101fc0501fe09f8
0101fc0501fe09f8
02fe0003f6080902
02fe0003f6080902
02fe0003f6080902
02fe0003f6080902
02fe0003f6080902
02fe0003f6080902
02fe0003f6080902
02fe0003f6080902
faff02fc04060404
faff02fc04060404
faff02fc04060404
faff02fc04060404
faff02fc04060404
faff02fc04060404
faff02fc04060404
faff02fc04060404
01fdf403fa00fbfc
01fdf403fa00fbfc
01fdf403fa00fbfc
01fdf403fa00fbfc
01fdf403fa00fbfc
01fdf403fa00fbfc
01fdf403fa00fbfc
01fdf403fa00fbfc
0607fdfa02fefc07
0607fdfa02fefc07
0607fdfa02fefc07
0607fdfa02fefc07
0607fdfa02fefc07
0607fdfa02fefc07
0607fdfa02fefc07
0607fdfa02fefc07
090ffff8fcfa08fb
090ffff8fcfa08fb
090ffff8fcfa08fb
090ffff8fcfa08fb
090ffff8fcfa08fb
090ffff8fcfa08fb
090ffff8fcfa08fb
090ffff8fcfa08fb
fcf8fffcf7f3f9f7
fcf8fffcf7f3f9f7
fcf8fffcf7f3f9f7
fcf8fffcf7f3f9f7
fcf8fffcf7f3f9f7
fcf8fffcf7f3f9f7
fcf8fffcf7f3f9f7
fcf8fffcf7f3f9f7
fdf6fdf50902fbf7
fdf6fdf50902fbf7
fdf6fdf50902fbf7
fdf6fdf50902fbf7
fdf6fdf50902fbf7
fdf6fdf50902fbf7
fdf6fdf50902fbf7
fdf6fdf50902fbf7
fb010204090afcf7
fb010204090afcf7
fb010204090afcf7
fb010204090afcf7
fb010204090afcf7
fb010204090afcf7
fb010204090afcf7
fb010204090afcf7
07f8fbfd07080403
07f8fbfd07080403
07f8fbfd07080403
07f8fbfd07080403
07f8fbfd07080403
07f8fbfd07080403
07f8fbfd07080403
07f8fbfd07080403
08fe06fa03fef9fb
08fe06fa03fef9fb
08fe06fa03fef9fb
08fe06fa03fef9fb
08fe06fa03fef9fb
08fe06fa03fef9fb
08fe06fa03fef9fb
08fe06fa03fef9fb
f4fd06020005ff07
f4fd06020005ff07
f4fd06020005ff07
f4fd06020005ff07
f4fd06020005ff07
f4fd06020005ff07
f4fd06020005ff07
f4fd06020005ff07
fef700f205fbfb01
fef700f205fbfb01
fef700f205fbfb01
fef700f205fbfb01
fef700f205fbfb01
fef700f205fbfb01
fef700f205fbfb01
fef700f205fbfb01
fefe0100feff00ff
fefe0100feff00ff
fefe0100feff00ff
fefe0100feff00ff
fefe0100feff00ff
fefe0100feff00ff
fefe0100feff00ff
fefe0100feff00ff
00ff02fe01ff0202
00ff02fe01ff0202
00ff02fe01ff0202
00ff02fe01ff0202
00ff02fe01ff0202
00ff02fe01ff0202
00ff02fe01ff0202
00ff02fe01ff0202
01000000000001ff
01000000000001ff
01000000000001ff
01000000000001ff
01000000000001ff
01000000000001ff
01000000000001ff
01000000000001ff
fe00ff01fd0001ff
fe00ff01fd0001ff
fe00ff01fd0001ff
fe00ff01fd0001ff
fe00ff01fd0001ff
fe00ff01fd0001ff
fe00ff01fd0001ff
fe00ff01fd0001ff
0001fe00020000ff
0001fe00020000ff
0001fe00020000ff
0001fe00020000ff
0001fe00020000ff
0001fe00020000ff
0001fe00020000ff
0001fe00020000ff
ffff00fd0000ff00
ffff00fd0000ff00
ffff00fd0000ff00
ffff00fd0000ff00
ffff00fd0000ff00
ffff00fd0000ff00
ffff00fd0000ff00
ffff00fd0000ff00
000002ff020001ff
000002ff020001ff
000002ff020001ff
000002ff020001ff
000002ff020001ff
000002ff020001ff
000002ff020001ff
000002ff020001ff
010101ff00010000
010101ff00010000
010101ff00010000
010101ff00010000
010101ff00010000
010101ff00010000
010101ff00010000
010101ff00010000
00010200010100ff
00010200010100ff
00010200010100ff
00010200010100ff
00010200010100ff
00010200010100ff
00010200010100ff
00010200010100ff
0002fefe01ffff01
0002fefe01ffff01
0002fefe01ffff01
0002fefe01ffff01
0002fefe01ffff01
0002fefe01ffff01
0002fefe01ffff01
0002fefe01ffff01
00ffff0003000101
00ffff0003000101
00ffff0003000101
00ffff0003000101
00ffff0003000101
00ffff0003000101
00ffff0003000101
00ffff0003000101
0000010200000000
0000010200000000
0000010200000000
0000010200000000
0000010200000000
0000010200000000
0000010200000000
0000010200000000
01ff01ff01ff01ff
01ff01ff01ff01ff
01ff01ff01ff01ff
01ff01ff01ff01ff
01ff01ff01ff01ff
01ff01ff01ff01ff
01ff01ff01ff01ff
01ff01ff01ff01ff
ffff00ff01fe0100
ffff00ff01fe0100
ffff00ff01fe0100
ffff00ff01fe0100
ffff00ff01fe0100
ffff00ff01fe0100
ffff00ff01fe0100
ffff00ff01fe0100
ffffffff00000101
ffffffff00000101
ffffffff00000101
ffffffff00000101
ffffffff00000101
ffffffff00000101
ffffffff00000101
ffffffff00000101
020002020100feff
020002020100feff
020002020100feff
020002020100feff
020002020100feff
020002020100feff
020002020100feff
020002020100feff
f904f9f9f905f906
04f8fff904fcf9fa
fbfbfafbfa05fd05
04f8fcfb04fa0305
fa050206050701fa
f80403fb00fa0305
0705fbfafa01fafa
fcf804f9fc04fa04
05fb0004fc0204fa
fbfa05fb02fa05fa
fafafd04f7050705
02ff0403fbfbf9f9
05fbf905fa00f7fa
0507fa040404f9fa
02f9070506f9fa05
0505fafaf9040405
f903fbfbf9fbfcf9
fbfb05f8fa0500f9
fa0700fb04fe07fa
04fb06f9fc040405
fc05f90402f9fafa
05fb05f80506fa06
f904fc050600fe04
fa0406fdf90406fb
06f902f9fafaf9fa
ff05f906fefd01f9
f906fbfaf705fc05
0405fd040605fdfb
03f80304fe0605fa
fa0304fafe060405
f905080407fbf904
060404f90504f8f9
f9f9070706070909
08040809fafbfafa
0a08fefb080a0908
fc04fe0808080808
f80b08f9f9fffafa
07f9080af90808fa
fa09fbfafafa0afa
fa070809f908f904
f907fa0af9fb0aff
0907070807ff0508
fa090508f808f9fc
f808fa0001fc0b07
08fb04fa06fc0607
0a08050a09fa0801
09f90709fb0608fa
fafc09f909f9fbfa
fbfbfa0902fbfc0a
0809fbfafafafbf9
0708f809080afbfa
06fdf9fbfbfe0408
03fbfa0609080afa
0a08fd07fb0809f9
faf9fafafbfb09f9
0708fa05fb09fb0a
fcfa08fe06f80af9
0908fbfafbfb0709
060809f90007fc00
f9fb07faf9f8f808
fcfbf90801fbfafb
fcf9fbfd08fa0afb
09fcfdfa08fbfaf7
0107fbfc070b09f9
0000000100000102
0000000100000102
0000000100000102
0000000100000102
0000000100000102
0000000100000102
0000000100000102
0000000100000102
0001010100000000
0001010100000000
0001010100000000
0001010100000000
0001010100000000
0001010100000000
0001010100000000
0001010100000000
0001ff0101010001
0001ff0101010001
0001ff0101010001
0001ff0101010001
0001ff0101010001
0001ff0101010001
0001ff0101010001
0001ff0101010001
01ff010000000101
01ff010000000101
01ff010000000101
01ff010000000101
01ff010000000101
01ff010000000101
01ff010000000101
01ff010000000101
ff01000100000000
ff01000100000000
ff01000100000000
ff01000100000000
ff01000100000000
ff01000100000000
ff01000100000000
ff01000100000000
0000000001000000
0000000001000000
0000000001000000
0000000001000000
0000000001000000
0000000001000000
0000000001000000
0000000001000000
0000000000000000
0000000000000000
0000000000000000
0000000000000000
0000000000000000
0000000000000000
0000000000000000
0000000000000000
0001000000000000
0001000000000000
0001000000000000
0001000000000000
0001000000000000
0001000000000000
0001000000000000
0001000000000000
000001ffff010000
000001ffff010000
000001ffff010000
000001ffff010000
000001ffff010000
000001ffff010000
000001ffff010000
000001ffff010000
0001000100010000
0001000100010000
0001000100010000
0001000100010000
0001000100010000
0001000100010000
0001000100010000
0001000100010000
0001000001000001
0001000001000001
0001000001000001
0001000001000001
0001000001000001
0001000001000001
0001000001000001
0001000001000001
0000010100000001
0000010100000001
0000010100000001
0000010100000001
0000010100000001
0000010100000001
0000010100000001
0000010100000001
0101ff0000000000
0101ff0000000000
0101ff0000000000
0101ff0000000000
0101ff0000000000
0101ff0000000000
0101ff0000000000
0101ff0000000000
0000000000010000
0000000000010000
0000000000010000
0000000000010000
0000000000010000
0000000000010000
0000000000010000
0000000000010000
01ff00ff00010000
01ff00ff00010000
01ff00ff00010000
01ff00ff00010000
01ff00ff00010000
01ff00ff00010000
01ff00ff00010000
01ff00ff00010000
ff00000000ff0000
ff00000000ff0000
ff00000000ff0000
ff00000000ff0000
ff00000000ff0000
ff00000000ff0000
ff00000000ff0000
ff00000000ff0000
ff00ff00000000ff
ff00ff00000000ff
ff00ff00000000ff
ff00ff00000000ff
ff00ff00000000ff
ff00ff00000000ff
ff00ff00000000ff
ff00ff00000000ff
000000ff00000100
000000ff00000100
000000ff00000100
000000ff00000100
000000ff00000100
000000ff00000100
000000ff00000100
000000ff00000100
ffff000000010000
ffff000000010000
ffff000000010000
ffff000000010000
ffff000000010000
ffff000000010000
ffff000000010000
ffff000000010000
010000ff00000100
010000ff00000100
010000ff00000100
010000ff00000100
010000ff00000100
010000ff00000100
010000ff00000100
010000ff00000100
0001000000ff0000
0001000000ff0000
0001000000ff0000
0001000000ff0000
0001000000ff0000
0001000000ff0000
0001000000ff0000
0001000000ff0000
01ff000100000000
01ff000100000000
01ff000100000000
01ff000100000000
01ff000100000000
01ff000100000000
01ff000100000000
01ff000100000000
fffe0001ff000100
fffe0001ff000100
fffe0001ff000100
fffe0001ff000100
fffe0001ff000100
fffe0001ff000100
fffe0001ff000100
fffe0001ff000100
0000000000000001
0000000000000001
0000000000000001
0000000000000001
0000000000000001
0000000000000001
0000000000000001
0000000000000001
000000ff00ff0000
000000ff00ff0000
000000ff00ff0000
000000ff00ff0000
000000ff00ff0000
000000ff00ff0000
000000ff00ff0000
000000ff00ff0000
ff01ff0100000000
ff01ff0100000000
ff01ff0100000000
ff01ff0100000000
ff01ff0100000000
ff01ff0100000000
ff01ff0100000000
ff01ff0100000000
0000000001000100
0000000001000100
0000000001000100
0000000001000100
0000000001000100
0000000001000100
0000000001000100
0000000001000100
0100010100010000
0100010100010000
0100010100010000
0100010100010000
0100010100010000
0100010100010000
0100010100010000
0100010100010000
00ff000000000100
00ff000000000100
00ff000000000100
00ff000000000100
00ff000000000100
00ff000000000100
00ff000000000100
00ff000000000100
fe00000000000100
fe00000000000100
fe00000000000100
fe00000000000100
fe00000000000100
fe00000000000100
fe00000000000100
fe00000000000100
010000000000ff00
010000000000ff00
010000000000ff00
010000000000ff00
010000000000ff00
010000000000ff00
010000000000ff00
010000000000ff00
00000000ff0001ff
00000000ff0001ff
00000000ff0001ff
00000000ff0001ff
00000000ff0001ff
00000000ff0001ff
00000000ff0001ff
00000000ff0001ff
ff06fc07fefc0503
ff06fc07fefc0503
ff06fc07fefc0503
ff06fc07fefc0503
ff06fc07fefc0503
ff06fc07fefc0503
ff06fc07fefc0503
ff06fc07fefc0503
fffc0404ff01fdfc
fffc0404ff01fdfc
fffc0404ff01fdfc
fffc0404ff01fdfc
fffc0404ff01fdfc
fffc0404ff01fdfc
fffc0404ff01fdfc
fffc0404ff01fdfc
0904040105090702
0904040105090702
0904040105090702
0904040105090702
0904040105090702
0904040105090702
0904040105090702
0904040105090702
fb020004fcf8030b
fb020004fcf8030b
fb020004fcf8030b
fb020004fcf8030b
fb020004fcf8030b
fb020004fcf8030b
fb020004fcf8030b
fb020004fcf8030b
070c010903010008
070c010903010008
070c010903010008
070c010903010008
070c010903010008
070c010903010008
070c010903010008
070c010903010008
030401020903fc08
030401020903fc08
030401020903fc08
030401020903fc08
030401020903fc08
030401020903fc08
030401020903fc08
030401020903fc08
06020505fd0508fb
06020505fd0508fb
06020505fd0508fb
06020505fd0508fb
06020505fd0508fb
06020505fd0508fb
06020505fd0508fb
06020505fd0508fb
01fefe08fdff07fb
01fefe08fdff07fb
01fefe08fdff07fb
01fefe08fdff07fb
01fefe08fdff07fb
01fefe08fdff07fb
01fefe08fdff07fb
01fefe08fdff07fb
06f501ff06ff0101
06f501ff06ff0101
06f501ff06ff0101
06f501ff06ff0101
06f501ff06ff0101
06f501ff06ff0101
06f501ff06ff0101
06f501ff06ff0101
00000306fdf8f5ff
00000306fdf8f5ff
00000306fdf8f5ff
00000306fdf8f5ff
00000306fdf8f5ff
00000306fdf8f5ff
00000306fdf8f5ff
00000306fdf8f5ff
050906000403ff0b
050906000403ff0b
050906000403ff0b
050906000403ff0b
050906000403ff0b
050906000403ff0b
050906000403ff0b
050906000403ff0b
070100fcfe0306f6
070100fcfe0306f6
070100fcfe0306f6
070100fcfe0306f6
070100fcfe0306f6
070100fcfe0306f6
070100fcfe0306f6
070100fcfe0306f6
fc01fcf504fdf4fc
fc01fcf504fdf4fc
fc01fcf504fdf4fc
fc01fcf504fdf4fc
fc01fcf504fdf4fc
fc01fcf504fdf4fc
fc01fcf504fdf4fc
fc01fcf504fdf4fc
04feff03060df6fb
04feff03060df6fb
04feff03060df6fb
04feff03060df6fb
04feff03060df6fb
04feff03060df6fb
04feff03060df6fb
04feff03060df6fb
00ff030603070502
00ff030603070502
00ff030603070502
00ff030603070502
00ff030603070502
00ff030603070502
00ff030603070502
00ff030603070502
fcfe0006010a0001
fcfe0006010a0001
fcfe0006010a0001
fcfe0006010a0001
fcfe0006010a0001
fcfe0006010a0001
fcfe0006010a0001
fcfe0006010a0001
020207fffb010003
020207fffb010003
020207fffb010003
020207fffb010003
020207fffb010003
020207fffb010003
020207fffb010003
020207fffb010003
0305fc030300fa0c
0305fc030300fa0c
0305fc030300fa0c
0305fc030300fa0c
0305fc030300fa0c
0305fc030300fa0c
0305fc030300fa0c
0305fc030300fa0c
00040a0c03040904
00040a0c03040904
00040a0c03040904
00040a0c03040904
00040a0c03040904
00040a0c03040904
00040a0c03040904
00040a0c03040904
0cfe050703f501fe
0cfe050703f501fe
0cfe050703f501fe
0cfe050703f501fe
0cfe050703f501fe
0cfe050703f501fe
0cfe050703f501fe
0cfe050703f501fe
0bfbf901ff02f904
0bfbf901ff02f904
0bfbf901ff02f904
0bfbf901ff02f904
0bfbf901ff02f904
0bfbf901ff02f904
0bfbf901ff02f904
0bfbf901ff02f904
020a10fe010503f4
020a10fe010503f4
020a10fe010503f4
020a10fe010503f4
020a10fe010503f4
020a10fe010503f4
020a10fe010503f4
020a10fe010503f4
0a06040804010906
0a06040804010906
0a06040804010906
0a06040804010906
0a06040804010906
0a06040804010906
0a06040804010906
0a06040804010906
fbf601fcfa05fd0a
fbf601fcfa05fd0a
fbf601fcfa05fd0a
fbf601fcfa05fd0a
fbf601fcfa05fd0a
fbf601fcfa05fd0a
fbf601fcfa05fd0a
fbf601fcfa05fd0a
06000200fd060cfd
06000200fd060cfd
06000200fd060cfd
06000200fd060cfd
06000200fd060cfd
06000200fd060cfd
06000200fd060cfd
06000200fd060cfd
0708fe07fbfdfb0a
0708fe07fbfdfb0a
0708fe07fbfdfb0a
0708fe07fbfdfb0a
0708fe07fbfdfb0a
0708fe07fbfdfb0a
0708fe07fbfdfb0a
0708fe07fbfdfb0a
f6f6000efbfefd03
f6f6000efbfefd03
f6f6000efbfefd03
f6f6000efbfefd03
f6f6000efbfefd03
f6f6000efbfefd03
f6f6000efbfefd03
f6f6000efbfefd03
07090408080a0901
07090408080a0901
07090408080a0901
07090408080a0901
07090408080a0901
07090408080a0901
07090408080a0901
07090408080a0901
02fc0bfc070201fc
02fc0bfc070201fc
02fc0bfc070201fc
02fc0bfc070201fc
02fc0bfc070201fc
02fc0bfc070201fc
02fc0bfc070201fc
02fc0bfc070201fc
f8fcfb00ff030607
f8fcfb00ff030607
f8fcfb00ff030607
f8fcfb00ff030607
f8fcfb00ff030607
f8fcfb00ff030607
f8fcfb00ff030607
f8fcfb00ff030607
04fdf9030600fe05
04fdf9030600fe05
04fdf9030600fe05
04fdf9030600fe05
04fdf9030600fe05
04fdf9030600fe05
04fdf9030600fe05
04fdf9030600fe05
01fbf603090afb09
01fbf603090afb09
01fbf603090afb09
01fbf603090afb09
01fbf603090afb09
01fbf603090afb09
01fbf603090afb09
01fbf603090afb09
0100000000010001
0100000000010001
0100000000010001
0100000000010001
0100000000010001
0100000000010001
0100000000010001
0100000000010001
02000000000000ff
02000000000000ff
02000000000000ff
02000000000000ff
02000000000000ff
02000000000000ff
02000000000000ff
02000000000000ff
0000000000000001
0000000000000001
0000000000000001
0000000000000001
0000000000000001
0000000000000001
0000000000000001
0000000000000001
01000000010001ff
01000000010001ff
01000000010001ff
01000000010001ff
01000000010001ff
01000000010001ff
01000000010001ff
01000000010001ff
01ff010002000000
01ff010002000000
01ff010002000000
01ff010002000000
01ff010002000000
01ff010002000000
01ff010002000000
01ff010002000000
00010000ff000100
00010000ff000100
00010000ff000100
00010000ff000100
00010000ff000100
00010000ff000100
00010000ff000100
00010000ff000100
0001000000ff0000
0001000000ff0000
0001000000ff0000
0001000000ff0000
0001000000ff0000
0001000000ff0000
0001000000ff0000
0001000000ff0000
0101010001000000
0101010001000000
0101010001000000
0101010001000000
0101010001000000
0101010001000000
0101010001000000
0101010001000000
000000000000ff01
000000000000ff01
000000000000ff01
000000000000ff01
000000000000ff01
000000000000ff01
000000000000ff01
000000000000ff01
0000010000000001
0000010000000001
0000010000000001
0000010000000001
0000010000000001
0000010000000001
0000010000000001
0000010000000001
000000ff00000000
000000ff00000000
000000ff00000000
000000ff00000000
000000ff00000000
000000ff00000000
000000ff00000000
000000ff00000000
0001000000fffe01
0001000000fffe01
0001000000fffe01
0001000000fffe01
0001000000fffe01
0001000000fffe01
0001000000fffe01
0001000000fffe01
00ff000000010000
00ff000000010000
00ff000000010000
00ff000000010000
00ff000000010000
00ff000000010000
00ff000000010000
00ff000000010000
000000ff00000101
000000ff00000101
000000ff00000101
000000ff00000101
000000ff00000101
000000ff00000101
000000ff00000101
000000ff00000101
ff00000001ff0100
ff00000001ff0100
ff00000001ff0100
ff00000001ff0100
ff00000001ff0100
ff00000001ff0100
ff00000001ff0100
ff00000001ff0100
ff0000ff00000100
ff0000ff00000100
ff0000ff00000100
ff0000ff00000100
ff0000ff00000100
ff0000ff00000100
ff0000ff00000100
ff0000ff00000100
ff010100ff000000
ff010100ff000000
ff010100ff000000
ff010100ff000000
ff010100ff000000
ff010100ff000000
ff010100ff000000
ff010100ff000000
01fe0101ff0001fe
01fe0101ff0001fe
01fe0101ff0001fe
01fe0101ff0001fe
01fe0101ff0001fe
01fe0101ff0001fe
01fe0101ff0001fe
01fe0101ff0001fe
000000000000ff00
000000000000ff00
000000000000ff00
000000000000ff00
000000000000ff00
000000000000ff00
000000000000ff00
000000000000ff00
0000010101000000
0000010101000000
0000010101000000
0000010101000000
0000010101000000
0000010101000000
0000010101000000
0000010101000000
0001000000000000
0001000000000000
0001000000000000
0001000000000000
0001000000000000
0001000000000000
0001000000000000
0001000000000000
00ff010101010001
00ff010101010001
00ff010101010001
00ff010101010001
00ff010101010001
00ff010101010001
00ff010101010001
00ff010101010001
ffff000000ff0100
ffff000000ff0100
ffff000000ff0100
ffff000000ff0100
ffff000000ff0100
ffff000000ff0100
ffff000000ff0100
ffff000000ff0100
0000ff0100ffff00
0000ff0100ffff00
0000ff0100ffff00
0000ff0100ffff00
0000ff0100ffff00
0000ff0100ffff00
0000ff0100ffff00
0000ff0100ffff00
ff00ff0100000000
ff00ff0100000000
ff00ff0100000000
ff00ff0100000000
ff00ff0100000000
ff00ff0100000000
ff00ff0100000000
ff00ff0100000000
00ff0001ff000000
00ff0001ff000000
00ff0001ff000000
00ff0001ff000000
00ff0001ff000000
00ff0001ff000000
00ff0001ff000000
00ff0001ff000000
00ff020000ff0000
00ff020000ff0000
00ff020000ff0000
00ff020000ff0000
00ff020000ff0000
00ff020000ff0000
00ff020000ff0000
00ff020000ff0000
01ffffffffff01ff
01ffffffffff01ff
01ffffffffff01ff
01ffffffffff01ff
01ffffffffff01ff
01ffffffffff01ff
01ffffffffff01ff
01ffffffffff01ff
0000ff0101ff00ff
0000ff0101ff00ff
0000ff0101ff00ff
0000ff0101ff00ff
0000ff0101ff00ff
0000ff0101ff00ff
0000ff0101ff00ff
0000ff0101ff00ff
0000000000000001
0000000000000001
0000000000000001
0000000000000001
0000000000000001
0000000000000001
0000000000000001
0000000000000001
00ff000100ffff00
00ff000100ffff00
00ff000100ffff00
00ff000100ffff00
00ff000100ffff00
00ff000100ffff00
00ff000100ffff00
00ff000100ffff00
01ffffff000101ff
01ffffff000101ff
01ffffff000101ff
01ffffff000101ff
01ffffff000101ff
01ffffff000101ff
01ffffff000101ff
01ffffff000101ff
0305fe0906fa02f8
ff0408050702fefc
010702fafdff01fe
fbfa02070801fafa
08fd01fc0601fafc
fd06ff06ff0806fb
0006fffbfafdfafe
000109fa02fd04fe
05f9fbfafb060601
f8090105fcfd03f8
0409fa06ff04fc00
fafb0705040104fd
0309fffb05fbfafb
08fc0709090af906
fafefbfcfcfff900
050202fb02fd0504
fa06060603050503
0107fd030405fcf9
04fe00fa0209fff9
01060402fdfbff00
03fc060100f900ff
040706020704fb03
03fcfc04f9fdff08
fa0004fefe0403fe
f80a01ff01040805
0707ffff0308fd01
0701fb0505080700
0204040600020306
060505fd07010101
f908fb0a01fafaf9
fbff03f90200fd01
000103f8fa03fb09
f90dfc0df2f8081f
f90dfc0df2f8081f
f90dfc0df2f8081f
f90dfc0df2f8081f
f90dfc0df2f8081f
f90dfc0df2f8081f
f90dfc0df2f8081f
f90dfc0df2f8081f
0909151b17fa0e0b
0909151b17fa0e0b
0909151b17fa0e0b
0909151b17fa0e0b
0909151b17fa0e0b
0909151b17fa0e0b
0909151b17fa0e0b
0909151b17fa0e0b
fe0a0702060cff04
fe0a0702060cff04
fe0a0702060cff04
fe0a0702060cff04
fe0a0702060cff04
fe0a0702060cff04
fe0a0702060cff04
fe0a0702060cff04
fc090b1e1e150b0d
fc090b1e1e150b0d
fc090b1e1e150b0d
fc090b1e1e150b0d
fc090b1e1e150b0d
fc090b1e1e150b0d
fc090b1e1e150b0d
fc090b1e1e150b0d
0bfc02fbfc171004
0bfc02fbfc171004
0bfc02fbfc171004
0bfc02fbfc171004
0bfc02fbfc171004
0bfc02fbfc171004
0bfc02fbfc171004
0bfc02fbfc171004
0e121012f915091c
0e121012f915091c
0e121012f915091c
0e121012f915091c
0e121012f915091c
0e121012f915091c
0e121012f915091c
0e121012f915091c
f90c14f9030a0bf4
f90c14f9030a0bf4
f90c14f9030a0bf4
f90c14f9030a0bf4
f90c14f9030a0bf4
f90c14f9030a0bf4
f90c14f9030a0bf4
f90c14f9030a0bf4
130b1f101001160a
130b1f101001160a
130b1f101001160a
130b1f101001160a
130b1f101001160a
130b1f101001160a
130b1f101001160a
130b1f101001160a
0c060608ec0c110a
0c060608ec0c110a
0c060608ec0c110a
0c060608ec0c110a
0c060608ec0c110a
0c060608ec0c110a
0c060608ec0c110a
0c060608ec0c110a
0a0203f9fe07fa04
0a0203f9fe07fa04
0a0203f9fe07fa04
0a0203f9fe07fa04
0a0203f9fe07fa04
0a0203f9fe07fa04
0a0203f9fe07fa04
0a0203f9fe07fa04
f2151007120dfc04
f2151007120dfc04
f2151007120dfc04
f2151007120dfc04
f2151007120dfc04
f2151007120dfc04
f2151007120dfc04
f2151007120dfc04
0d000e0207090211
0d000e0207090211
0d000e0207090211
0d000e0207090211
0d000e0207090211
0d000e0207090211
0d000e0207090211
0d000e0207090211
0a14fcf810f70507
0a14fcf810f70507
0a14fcf810f70507
0a14fcf810f70507
0a14fcf810f70507
0a14fcf810f70507
0a14fcf810f70507
0a14fcf810f70507
0818f51315071211
0818f51315071211
0818f51315071211
0818f51315071211
0818f51315071211
0818f51315071211
0818f51315071211
0818f51315071211
12110f01f2050a10
12110f01f2050a10
12110f01f2050a10
12110f01f2050a10
12110f01f2050a10
12110f01f2050a10
12110f01f2050a10
12110f01f2050a10
1a10fedff2f207f3
1a10fedff2f207f3
1a10fedff2f207f3
1a10fedff2f207f3
1a10fedff2f207f3
1a10fedff2f207f3
1a10fedff2f207f3
1a10fedff2f207f3
021403141b03081b
021403141b03081b
021403141b03081b
021403141b03081b
021403141b03081b
021403141b03081b
021403141b03081b
021403141b03081b
0c060809fe050b07
0c060809fe050b07
0c060809fe050b07
0c060809fe050b07
0c060809fe050b07
0c060809fe050b07
0c060809fe050b07
0c060809fe050b07
030f1706f81d030f
030f1706f81d030f
030f1706f81d030f
030f1706f81d030f
030f1706f81d030f
030f1706f81d030f
030f1706f81d030f
030f1706f81d030f
0c020307e401190a
0c020307e401190a
0c020307e401190a
0c020307e401190a
0c020307e401190a
0c020307e401190a
0c020307e401190a
0c020307e401190a
0e0d05f9f208140c
0e0d05f9f208140c
0e0d05f9f208140c
0e0d05f9f208140c
0e0d05f9f208140c
0e0d05f9f208140c
0e0d05f9f208140c
0e0d05f9f208140c
1511fd081717f9fc
1511fd081717f9fc
1511fd081717f9fc
1511fd081717f9fc
1511fd081717f9fc
1511fd081717f9fc
1511fd081717f9fc
1511fd081717f9fc
f60e0c1b0b0d0314
f60e0c1b0b0d0314
f60e0c1b0b0d0314
f60e0c1b0b0d0314
f60e0c1b0b0d0314
f60e0c1b0b0d0314
f60e0c1b0b0d0314
f60e0c1b0b0d0314
040a1dfa0a03fd17
040a1dfa0a03fd17
040a1dfa0a03fd17
040a1dfa0a03fd17
040a1dfa0a03fd17
040a1dfa0a03fd17
040a1dfa0a03fd17
040a1dfa0a03fd17
150e091100faff06
150e091100faff06
150e091100faff06
150e091100faff06
150e091100faff06
150e091100faff06
150e091100faff06
150e091100faff06
f60afe10090f05f8
f60afe10090f05f8
f60afe10090f05f8
f60afe10090f05f8
f60afe10090f05f8
f60afe10090f05f8
f60afe10090f05f8
f60afe10090f05f8
090f1310060502fe
090f1310060502fe
090f1310060502fe
090f1310060502fe
090f1310060502fe
090f1310060502fe
090f1310060502fe
090f1310060502fe
fd1200140d01060e
fd1200140d01060e
fd1200140d01060e
fd1200140d01060e
fd1200140d01060e
fd1200140d01060e
fd1200140d01060e
fd1200140d01060e
1810ff080ff90d08
1810ff080ff90d08
1810ff080ff90d08
1810ff080ff90d08
1810ff080ff90d08
1810ff080ff90d08
1810ff080ff90d08
1810ff080ff90d08
05021420080afd08
05021420080afd08
05021420080afd08
05021420080afd08
05021420080afd08
05021420080afd08
05021420080afd08
05021420080afd08
0202f708fb0b05f8
0202f708fb0b05f8
0202f708fb0b05f8
0202f708fb0b05f8
0202f708fb0b05f8
0202f708fb0b05f8
0202f708fb0b05f8
0202f708fb0b05f8
19f8ff1e0f04f80e
19f8ff1e0f04f80e
19f8ff1e0f04f80e
19f8ff1e0f04f80e
19f8ff1e0f04f80e
19f8ff1e0f04f80e
19f8ff1e0f04f80e
19f8ff1e0f04f80e
000000010000ff01
000000010000ff01
000000010000ff01
000000010000ff01
000000010000ff01
000000010000ff01
000000010000ff01
000000010000ff01
0000000000000000
0000000000000000
0000000000000000
0000000000000000
0000000000000000
0000000000000000
0000000000000000
0000000000000000
ff0000ff00000001
ff0000ff00000001
ff0000ff00000001
ff0000ff00000001
ff0000ff00000001
ff0000ff00000001
ff0000ff00000001
ff0000ff00000001
000000010000ff00
000000010000ff00
000000010000ff00
000000010000ff00
000000010000ff00
000000010000ff00
000000010000ff00
000000010000ff00
ff0000000000ff00
ff0000000000ff00
ff0000000000ff00
ff0000000000ff00
ff0000000000ff00
ff0000000000ff00
ff0000000000ff00
ff0000000000ff00
00000001ff0000ff
00000001ff0000ff
00000001ff0000ff
00000001ff0000ff
00000001ff0000ff
00000001ff0000ff
00000001ff0000ff
00000001ff0000ff
0000000100000000
0000000100000000
0000000100000000
0000000100000000
0000000100000000
0000000100000000
0000000100000000
0000000100000000
0000000000ff0000
0000000000ff0000
0000000000ff0000
0000000000ff0000
0000000000ff0000
0000000000ff0000
0000000000ff0000
0000000000ff0000
00ff010000000000
00ff010000000000
00ff010000000000
00ff010000000000
00ff010000000000
00ff010000000000
00ff010000000000
00ff010000000000
00000000ff000000
00000000ff000000
00000000ff000000
00000000ff000000
00000000ff000000
00000000ff000000
00000000ff000000
00000000ff000000
00000001ff010000
00000001ff010000
00000001ff010000
00000001ff010000
00000001ff010000
00000001ff010000
00000001ff010000
00000001ff010000
ffffff0000000000
ffffff0000000000
ffffff0000000000
ffffff0000000000
ffffff0000000000
ffffff0000000000
ffffff0000000000
ffffff0000000000
0000ff00ff0000ff
0000ff00ff0000ff
0000ff00ff0000ff
0000ff00ff0000ff
0000ff00ff0000ff
0000ff00ff0000ff
0000ff00ff0000ff
0000ff00ff0000ff
000100ff000000ff
000100ff000000ff
000100ff000000ff
000100ff000000ff
000100ff000000ff
000100ff000000ff
000100ff000000ff
000100ff000000ff
0000ff00ff0100ff
0000ff00ff0100ff
0000ff00ff0100ff
0000ff00ff0100ff
0000ff00ff0100ff
0000ff00ff0100ff
0000ff00ff0100ff
0000ff00ff0100ff
00ff00010000ff00
00ff00010000ff00
00ff00010000ff00
00ff00010000ff00
00ff00010000ff00
00ff00010000ff00
00ff00010000ff00
00ff00010000ff00
000000ff00ff0001
000000ff00ff0001
000000ff00ff0001
000000ff00ff0001
000000ff00ff0001
000000ff00ff0001
000000ff00ff0001
000000ff00ff0001
0000ff0000000001
0000ff0000000001
0000ff0000000001
0000ff0000000001
0000ff0000000001
0000ff0000000001
0000ff0000000001
0000ff0000000001
0000ff0000000100
0000ff0000000100
0000ff0000000100
0000ff0000000100
0000ff0000000100
0000ff0000000100
0000ff0000000100
0000ff0000000100
ff000000010000ff
ff000000010000ff
ff000000010000ff
ff000000010000ff
ff000000010000ff
ff000000010000ff
ff000000010000ff
ff000000010000ff
000000ff01010000
000000ff01010000
000000ff01010000
000000ff01010000
000000ff01010000
000000ff01010000
000000ff01010000
000000ff01010000
ffff01ff01000000
ffff01ff01000000
ffff01ff01000000
ffff01ff01000000
ffff01ff01000000
ffff01ff01000000
ffff01ff01000000
ffff01ff01000000
ff00000000000000
ff00000000000000
ff00000000000000
ff00000000000000
ff00000000000000
ff00000000000000
ff00000000000000
ff00000000000000
00ff0000000000ff
00ff0000000000ff
00ff0000000000ff
00ff0000000000ff
00ff0000000000ff
00ff0000000000ff
00ff0000000000ff
00ff0000000000ff
0000000000000000
0000000000000000
0000000000000000
0000000000000000
0000000000000000
0000000000000000
0000000000000000
0000000000000000
00000001ff010001
00000001ff010001
00000001ff010001
00000001ff010001
00000001ff010001
00000001ff010001
00000001ff010001
00000001ff010001
01ff0001ff00ff00
01ff0001ff00ff00
01ff0001ff00ff00
01ff0001ff00ff00
01ff0001ff00ff00
01ff0001ff00ff00
01ff0001ff00ff00
01ff0001ff00ff00
00ff000000ff0000
00ff000000ff0000
00ff000000ff0000
00ff000000ff0000
00ff000000ff0000
00ff000000ff0000
00ff000000ff0000
00ff000000ff0000
0000000000000101
0000000000000101
0000000000000101
0000000000000101
0000000000000101
0000000000000101
0000000000000101
0000000000000101
000000000100ff00
000000000100ff00
000000000100ff00
000000000100ff00
000000000100ff00
000000000100ff00
000000000100ff00
000000000100ff00
00ff01ff01000000
00ff01ff01000000
00ff01ff01000000
00ff01ff01000000
00ff01ff01000000
00ff01ff01000000
00ff01ff01000000
00ff01ff01000000
000000000000ff00
000000000000ff00
000000000000ff00
000000000000ff00
000000000000ff00
000000000000ff00
000000000000ff00
000000000000ff00
00fdfbf7f8fbfcfc
03f7fbf60404f605
fb05f902f9f804fd
05f7f9fd07030605
040100fb02010605
fcfcf7f8fc02f904
ffff02fefff805f8
06fafb08fa03f7f8
0505f8030300fdf9
01040306f8fa0601
05fb00f70304fcfa
fdf701fbff01faf9
0400fffa04fafa03
0201f8f8f6fe0601
06030701f8fffafa
00f905f900fbfffc
faf7030101fe0403
05030200fafb0305
fafcf90005fb05f7
04fa0405fa06fafd
fbf9f9f8fb010006
040405f9fafb00fc
fdfc03fbfbfcfaf7
f9fe0002fa0102fd
f70003fafaf80200
04fd02f70302fafb
04060001ff000206
fcfaf9f9f8f8fd03
05fb04f804f8fe06
0400fcf7fb0401fa
f904fdfa01fff8fa
fafbfd02fcf8f800
091b01efea03fbff
091b01efea03fbff
091b01efea03fbff
091b01efea03fbff
091b01efea03fbff
091b01efea03fbff
091b01efea03fbff
091b01efea03fbff
fa0000fb160dfb0a
fa0000fb160dfb0a
fa0000fb160dfb0a
fa0000fb160dfb0a
fa0000fb160dfb0a
fa0000fb160dfb0a
fa0000fb160dfb0a
fa0000fb160dfb0a
fcf01f0e0c0aed0c
fcf01f0e0c0aed0c
fcf01f0e0c0aed0c
fcf01f0e0c0aed0c
fcf01f0e0c0aed0c
fcf01f0e0c0aed0c
fcf01f0e0c0aed0c
fcf01f0e0c0aed0c
0c00050a13170411
0c00050a13170411
0c00050a13170411
0c00050a13170411
0c00050a13170411
0c00050a13170411
0c00050a13170411
0c00050a13170411
f6151806fe191301
f6151806fe191301
f6151806fe191301
f6151806fe191301
f6151806fe191301
f6151806fe191301
f6151806fe191301
f6151806fe191301
15100708050a13e9
15100708050a13e9
15100708050a13e9
15100708050a13e9
15100708050a13e9
15100708050a13e9
15100708050a13e9
15100708050a13e9
0b0501010b041105
0b0501010b041105
0b0501010b041105
0b0501010b041105
0b0501010b041105
0b0501010b041105
0b0501010b041105
0b0501010b041105
0d0e070ded0af403
0d0e070ded0af403
0d0e070ded0af403
0d0e070ded0af403
0d0e070ded0af403
0d0e070ded0af403
0d0e070ded0af403
0d0e070ded0af403
f71511fa07090af5
f71511fa07090af5
f71511fa07090af5
f71511fa07090af5
f71511fa07090af5
f71511fa07090af5
f71511fa07090af5
f71511fa07090af5
02020feb0b0401fb
02020feb0b0401fb
02020feb0b0401fb
02020feb0b0401fb
02020feb0b0401fb
02020feb0b0401fb
02020feb0b0401fb
02020feb0b0401fb
07ed0b0010f0fe08
07ed0b0010f0fe08
07ed0b0010f0fe08
07ed0b0010f0fe08
07ed0b0010f0fe08
07ed0b0010f0fe08
07ed0b0010f0fe08
07ed0b0010f0fe08
08fe14f20f0c16fe
08fe14f20f0c16fe
08fe14f20f0c16fe
08fe14f20f0c16fe
08fe14f20f0c16fe
08fe14f20f0c16fe
08fe14f20f0c16fe
08fe14f20f0c16fe
fdf608080a060c18
fdf608080a060c18
fdf608080a060c18
fdf608080a060c18
fdf608080a060c18
fdf608080a060c18
fdf608080a060c18
fdf608080a060c18
0705f307fef30d16
0705f307fef30d16
0705f307fef30d16
0705f307fef30d16
0705f307fef30d16
0705f307fef30d16
0705f307fef30d16
0705f307fef30d16
290cfc08fb0509ee
290cfc08fb0509ee
290cfc08fb0509ee
290cfc08fb0509ee
290cfc08fb0509ee
290cfc08fb0509ee
290cfc08fb0509ee
290cfc08fb0509ee
02f50d1503000ffb
02f50d1503000ffb
02f50d1503000ffb
02f50d1503000ffb
02f50d1503000ffb
02f50d1503000ffb
02f50d1503000ffb
02f50d1503000ffb
041111eaf3090f09
041111eaf3090f09
041111eaf3090f09
041111eaf3090f09
041111eaf3090f09
041111eaf3090f09
041111eaf3090f09
041111eaf3090f09
0509120df314fffd
0509120df314fffd
0509120df314fffd
0509120df314fffd
0509120df314fffd
0509120df314fffd
0509120df314fffd
0509120df314fffd
f410f40e041b0df4
f410f40e041b0df4
f410f40e041b0df4
f410f40e041b0df4
f410f40e041b0df4
f410f40e041b0df4
f410f40e041b0df4
f410f40e041b0df4
02f613f0f10aed11
02f613f0f10aed11
02f613f0f10aed11
02f613f0f10aed11
02f613f0f10aed11
02f613f0f10aed11
02f613f0f10aed11
02f613f0f10aed11
10f0041a0a130524
10f0041a0a130524
10f0041a0a130524
10f0041a0a130524
10f0041a0a130524
10f0041a0a130524
10f0041a0a130524
10f0041a0a130524
1302090fef150df6
1302090fef150df6
1302090fef150df6
1302090fef150df6
1302090fef150df6
1302090fef150df6
1302090fef150df6
1302090fef150df6
fa0c0d070b03f714
fa0c0d070b03f714
fa0c0d070b03f714
fa0c0d070b03f714
fa0c0d070b03f714
fa0c0d070b03f714
fa0c0d070b03f714
fa0c0d070b03f714
0a1713070e061003
0a1713070e061003
0a1713070e061003
0a1713070e061003
0a1713070e061003
0a1713070e061003
0a1713070e061003
0a1713070e061003
0313100e1608f401
0313100e1608f401
0313100e1608f401
0313100e1608f401
0313100e1608f401
0313100e1608f401
0313100e1608f401
0313100e1608f401
ff1c0401fcee0f03
ff1c0401fcee0f03
ff1c0401fcee0f03
ff1c0401fcee0f03
ff1c0401fcee0f03
ff1c0401fcee0f03
ff1c0401fcee0f03
ff1c0401fcee0f03
0c11f71108031603
0c11f71108031603
0c11f71108031603
0c11f71108031603
0c11f71108031603
0c11f71108031603
0c11f71108031603
0c11f71108031603
1412fffdf8ff1a0a
1412fffdf8ff1a0a
1412fffdf8ff1a0a
1412fffdf8ff1a0a
1412fffdf8ff1a0a
1412fffdf8ff1a0a
1412fffdf8ff1a0a
1412fffdf8ff1a0a
00020d07f20b0f0e
00020d07f20b0f0e
00020d07f20b0f0e
00020d07f20b0f0e
00020d07f20b0f0e
00020d07f20b0f0e
00020d07f20b0f0e
00020d07f20b0f0e
f9fe08090912ebe5
f9fe08090912ebe5
f9fe08090912ebe5
f9fe08090912ebe5
f9fe08090912ebe5
f9fe08090912ebe5
f9fe08090912ebe5
f9fe08090912ebe5
fd17fdeb02181706
fd17fdeb02181706
fd17fdeb02181706
fd17fdeb02181706
fd17fdeb02181706
fd17fdeb02181706
fd17fdeb02181706
fd17fdeb02181706
f3edfe0ef5031715
f3edfe0ef5031715
f3edfe0ef5031715
f3edfe0ef5031715
f3edfe0ef5031715
f3edfe0ef5031715
f3edfe0ef5031715
f3edfe0ef5031715
010201feff000101
010201feff000101
010201feff000101
010201feff000101
010201feff000101
010201feff000101
010201feff000101
010201feff000101
0100010200010001
0100010200010001
